/**
  ******************************************************************************
  * @file    mnv1_data_params.c
  * @author  AST Embedded Analytics Research Platform
  * @date    Tue Dec 26 15:23:57 2023
  * @brief   AI Tool Automatic Code Generator for Embedded NN computing
  ******************************************************************************
  * Copyright (c) 2023 STMicroelectronics.
  * All rights reserved.
  *
  * This software is licensed under terms that can be found in the LICENSE file
  * in the root directory of this software component.
  * If no LICENSE file comes with this software, it is provided AS-IS.
  ******************************************************************************
  */

#include "mnv1_data_params.h"


/**  Activations Section  ****************************************************/
ai_handle g_mnv1_activations_table[1 + 2] = {
  AI_HANDLE_PTR(AI_MAGIC_MARKER),
  AI_HANDLE_PTR(NULL),
  AI_HANDLE_PTR(AI_MAGIC_MARKER),
};




/**  Weights Section  ********************************************************/
AI_ALIGNED(32)
const ai_u64 s_mnv1_weights_array_u64[56972] = {
  0x49efe51ff8b952f3U, 0xf7c43102817102c6U, 0xf40dfad432f1976aU, 0xd92df5U,
  0x0U, 0x0U, 0x412a000000000000U, 0x13184e29237f3f17U,
  0x123d221d67320c28U, 0x161910271f08040aU, 0x21fef8f2efadd00dU, 0xc3a1cebb2cc1248U,
  0x663a021a08207f4dU, 0x10022a2a141a1a1dU, 0xfd6e7f0117170c2bU, 0x4d50fa444f065d4fU,
  0x9f0b1c2c1136341aU, 0x3f2496523a813b28U, 0x16d3361ea82a11c7U, 0xf42210cb29fddb1cU,
  0xf81711e803ec0214U, 0x65500e2e10fb5d14U, 0x1bddd3c9347f4238U, 0x1a41211713U,
  0x0U, 0x0U, 0x0U, 0xd7e9eab3d4f6d7e7U,
  0x1f217f3d144d27f3U, 0xf4c9ebf9ddf31142U, 0xf7f7152bcffbe7f7U, 0xb0209fddc9e8108U,
  0xfbfe0804f8eefaf5U, 0xe4f20e39cefa07ffU, 0xdc043e28f3d2edf5U, 0x7513add81c1eac2U,
  0x2016e6a5ccf1dce3U, 0xf712532df8cfe108U, 0x207f42f3a9c50602U, 0x3f22f9d5e00bf7e8U,
  0xed6e7f2906fef512U, 0x386f35429ed33303U, 0x14ee19c3e70a0cfcU, 0x1721c31310ebf625U,
  0xf25080d46200727U, 0x3a2b14523f0c241eU, 0xdadb81b9e59cc60bU, 0xd281b81c4a28f7caU,
  0xe04f6f2fa123221U, 0x43eec3ddfe03000bU, 0x12ae3fefcadf2371U, 0x817c13b4370ede12U,
  0x3908916500bd4000U, 0xfbd3203dd1d0cb9U, 0xc00000000001b130U, 0x1761d0002fab1U,
  0x23fef0003ce82U, 0xc000000000019ac6U, 0xffff90480000f7feU, 0xbf1e0000e9d6U,
  0x91c600025f81U, 0x22f8fffffffa3U, 0xd87f7fa77f88de49U, 0x503c42ec6ed61801U,
  0xee4963055e81dcfaU, 0xf95446e7816120ffU, 0xa6f4c15512083dbeU, 0xb91ef3f211d31307U,
  0x18824e814717a37fU, 0x7f5c81816b9f4d8bU, 0xab72d0bcf2081f2U, 0xf37faf9f8f7f7f8eU,
  0x8103d575d2fa0c8eU, 0x8c3106f504d53c02U, 0x5d8a16fbe964d1feU, 0xf828340208f2427fU,
  0x66f11c02c7658bfbU, 0xfc3626fcf31d5a66U, 0xd422f001ecfaf607U, 0xc14fcf504f51bf7U,
  0x33000003e9U, 0x3d200000267U, 0x400000515U, 0x2b00000208U,
  0xfffffdc50000081eU, 0xb3300000680U, 0x6c4000004faU, 0x4ae000000b8U,
  0x810d07a60800f9U, 0x4e989b372d1f7dcU, 0x8fd4e118100e6U, 0xd5fcdff1f708f76dU,
  0x3fef4fc7f00d3U, 0xcbfcfcf90af8052eU, 0xeb159724f1004bU, 0x47e51b13fffe1581U,
  0xcbff0e02f400e7U, 0xfdf87f2509f8fc05U, 0x16f7fb248100b4U, 0xbb0a030309f50c90U,
  0x2afafe81e100feU, 0xf6870332040a1d02U, 0x10000a07fd000cU, 0x90105122f81f304U,
  0xf3fee4f1fd00f7U, 0xf8fffeec81c405feU, 0xfffcbf03020081U, 0x330102eb0afb2a02U,
  0x190888e6eb00c3U, 0xaf07fd04f81581ffU, 0x27f0afa0100f7U, 0xf90001f6fe000f01U,
  0x8fc58f14200e9U, 0xd9ff1af2f507ec81U, 0x3104eacde00028U, 0xff0e7f8a27fe0803U,
  0xfdfe046a1500ffU, 0xff810cd5fe03e3ffU, 0x140350f1fe00d6U, 0x7f03fdfcf903dbfeU,
  0xfffff99800000fb6U, 0xa9b00000012U, 0x34c0fffff189U, 0x28f000015f3U,
  0x183e00002e51U, 0xfffff2dd00003749U, 0xfffff03200000493U, 0xffffe0b3fffff11dU,
  0x7fe21406f512ff1aU, 0xf4ea08ff02ec0d12U, 0x90503f40502fdU, 0xfafc0681fc0100U,
  0xfc0a65f15bc3ac14U, 0x3f87ffd010003U, 0x31355ed7dcae6e81U, 0x4cf022060eeadddeU,
  0x7f201aeff1ff1031U, 0x1bdafb08010cf202U, 0x45f70cfcfe0401f0U, 0xfbf9f70e0202017fU,
  0x18704fcf10701ecU, 0x810a03fe0400f9U, 0xad0ff3fc14f0f308U, 0xa0d09ebfe03fb81U,
  0x3b81f632ec2817e3U, 0xc5ca93eaddee5f3U, 0xbf0afb0ea9f86de2U, 0x7704ea7c1081b80cU,
  0x7f4bf2d4f91ed45fU, 0xffabfd07ed2c0b07U, 0x81cfd1021627ce0fU, 0xb8221ff2f7dc360aU,
  0xf7febf0ea1ce9f8U, 0x698121116ea04fbU, 0x5fdc37fe637f9b8U, 0xfdff59ed05fc03fdU,
  0xfc8120ef19f013e2U, 0xf779e2fdf90501f6U, 0x5feaed3ef7fadebU, 0x70ce83103f5fef9U,
  0xa13c81f009658d3bU, 0xd0b330fc43012f12U, 0xf8f05e0d9d524217U, 0x26060c4917227f0bU,
  0x1e73a17b03a3716U, 0xe115f841037fdf04U, 0xfb883fda2ee119a8U, 0xcc7ffbd8d7f72aebU,
  0xa8aa0be9d706169dU, 0x3a91f22d09f5d37fU, 0x52f1311a1d0af22bU, 0x81060eb9ee0f6823U,
  0x20a0706f50504faU, 0x1faf6078107ffffU, 0xf11b8628f07f8d5aU, 0xf6ecfa34f5f30104U,
  0xf3bbb3b92ec1e51eU, 0xf9197fe2f9f2a211U, 0x51571fd1a815af1U, 0xfd0816c9010a01ffU,
  0xbd16f3e875f096e3U, 0xb5eafe810b6346fbU, 0xf15f4f01913fcU, 0x81fd0f1504f7ab01U,
  0x2f6d2e828d9ebf6U, 0xa70017ec01d481f9U, 0xfb117c3183654905U, 0x1e04c85418377f01U,
  0x612c97fe71d1ccdU, 0xff1451d603010102U, 0x602c77fdf2c07b9U, 0x55fe3040103fdU,
  0x1a5bf32b30ead0b2U, 0xfb9e81d790d4eddbU, 0x1129fe27fa194d2U, 0x11e5fb89ebd6d3f7U,
  0x6812998110910adU, 0xed51c5fcf3e910e4U, 0x33e05e21f01e8daU, 0xdcc507ea648129faU,
  0xb9fafbfc04f6fc0bU, 0x4f60ef9fd020181U, 0x4f794d364a2b8fbU, 0xe00234b5edda81ffU,
  0xd60526f43110dbeeU, 0x970b0ea3fb7f460bU, 0x160dfc11b700550eU, 0x650cf66c0c81b4edU,
  0xffeee081c7184e25U, 0x2f5b6b0ff0401feU, 0x1e1a7fc1ff936fa2U, 0x38244cf2fd1aebedU,
  0x4dfb4fb3bbcca06U, 0x7f0c08caee2316feU, 0xed7feff5ecf1ff3dU, 0x79f59f3111d0c0cU,
  0x7f060f07fe14ff15U, 0xee0f01ff03f61043U, 0x4bf727251e21e349U, 0x812b11a8e93e6a24U,
  0x105ee0617e6e5f9U, 0x7f07eee601e66efeU, 0xd3f5b3f540398132U, 0x88e711b10470591dU,
  0x3eb0f0de6121604U, 0xb2f1f81fff5481faU, 0x9da9863c83a005eU, 0x79e9907c508381fbU,
  0x721e0002bdbd7deU, 0x9dbe2d981bdfcf4U, 0x924d4eff940bf7fU, 0xddc6230af1022217U,
  0xfe81f2182628f3fcU, 0xe665d400fddf06f9U, 0x40310707060cff3eU, 0xf43e18f5fdeb0f81U,
  0xfa7fe805e2ffff39U, 0x15973905f50cfb0cU, 0x3eb8d066b8ab7f8U, 0x7f00eba903ae1bf6U,
  0x40eaaf2f67fb2f4U, 0x60ffa3301f900f9U, 0xf9fcf5e969fdabf2U, 0x9bfe0e8ff07f520aU,
  0xff08b08ab72a712eU, 0xfe0ea48100fe0201U, 0x3f78be8678eacf9U, 0x7f050fabecc412fcU,
  0xf7ff9cddbfefd09U, 0x2c873e14031af508U, 0xf10d7f109e733e06U, 0x85fcf43d13401c05U,
  0x4d98212804f81de8U, 0x167fbe07c40fdf02U, 0xeab51fe8ca1a1d2dU, 0x64114d220f157f17U,
  0xfb08378129d4eb46U, 0x707a31dfb00fa06U, 0xae25f5fc04f70bccU, 0xa1de010020df37fU,
  0xcae88828514e817bU, 0x89fc249b0f545a3eU, 0xc9ecaaf40c7f8733U, 0x91da00f1ed285113U,
  0x191427f83c2cc2ffU, 0x851207aafc7f5e0dU, 0x87ffc0ef0e3130fU, 0x49b2bf40b160508U,
  0xfc0b66f857c3a512U, 0x5fd7ffe01ff02U, 0x2781e243061aefedU, 0x1f4c812cf7e7cd04U,
  0x11f9fffffff4U, 0x281c00000048U, 0x1751000054abU, 0x6e00000410U,
  0x43000022bdU, 0x3dee000034e7U, 0xffffffd5000080d5U, 0x31c0000153aU,
  0xfffffe3600003975U, 0x1db7fffffe91U, 0x65c000001daU, 0x378f0000050bU,
  0x5b0000aa42U, 0xffffff720000155cU, 0xfffffd1e0000016bU, 0xffffffd5ffffff83U,
  0x315000004eaU, 0xfffffdd20000080dU, 0x28b000000a0U, 0xffffffe0ffffffe3U,
  0xec2b0001340bU, 0xf0200000293U, 0x94dffffff2aU, 0x51b700000168U,
  0x593300000066U, 0x311900000bdeU, 0xfffffef40000165dU, 0x6ed00001943U,
  0x1a00000001eU, 0x2d5ffffff48U, 0xfffffd52fffffdd9U, 0x5a00003e62U,
  0xffffff4400000cd1U, 0x23c20000ba3dU, 0x1cbaffffff65U, 0x219600000043U,
  0xf07ea1310a94a071U, 0xe32a8f7fcf9368b1U, 0x34e16275d57f7f3fU, 0x126d9975b5018101U,
  0x8862dc97717af199U, 0xc9a1fd611e71a4f3U, 0xf1991a13055c7f20U, 0x231d197fbc98ef93U,
  0xaf0c37827f815eb2U, 0x967af7f8e88181e2U, 0xee1a815a677d555fU, 0x36e2b8d1605a4e81U,
  0xc7f9a1581b19056U, 0x8e3d8d03457f8d0fU, 0xa6814872aa1081fcU, 0xa27f5538ead03162U,
  0x5cb161718e81859eU, 0x4a0c36abd96d5ea2U, 0xffff00d3f5dbcb09U, 0xf705ba1ed4f806f3U,
  0xf6c20409ea0f0040U, 0x117eb05a98ced3eU, 0xacfd9726f95dU, 0x4a4c8fa3001e6faU,
  0xd3e9090b15d6f93bU, 0x262e1234c4dda0edU, 0x80cf8da0d08ccU, 0xfa7f81fd2bf5107fU,
  0x908123c8407f7fb5U, 0x7f7f7f7f5b60723fU, 0x985c987fb107b228U, 0x817fcc817f9ee881U,
  0x7faae8706e7f516cU, 0xcf452f4ca681ae24U, 0x212f0a33a8a3ea81U, 0x7a8da181a38175a7U,
  0x817e02867fee0be2U, 0x9a9e0ff28184617fU, 0x7a6a8cda81745799U, 0x816c811285a0d17fU,
  0x8e2c81013c8e812fU, 0x4f8b7f7fbf026d7fU, 0x819d7f7f7f358b7fU, 0x7f817f238195819aU,
  0x818181b1465e7f81U, 0x2fefb7f2203060cU, 0xe3e002e838f609c8U, 0x4ee0c0a110f0126U,
  0xcc0ce3fea581f058U, 0xfefc96f787d5036fU, 0xf19a9af2deef112aU, 0xc51d0a2ed747f659U,
  0x3d541702aae599f4U, 0xcd7da01211114beU, 0x12c9d2ceec531aU, 0x814d01cdf2ec0febU,
  0x35fa3818e726000dU, 0xfe0cdf05db050ef3U, 0xe419f4e11dfb02dcU, 0xd6e5ff178515fd00U,
  0x92113254d240807U, 0x80c07c5d8f50805U, 0xd81126dbeeec21ffU, 0xdc0c0a799bed70faU,
  0x8b4ffdb41a031038U, 0x3cf5c7f70e130af8U, 0xf905d8ecbef51000U, 0xec0cd8001af3f3faU,
  0xffc3371b7f021506U, 0xf8e72530a1fa1309U, 0xada12dad0f0e604U, 0x340b4cee080929f8U,
  0x6fb03b5e8fd2f02U, 0xe41c03faf61102deU, 0xbea01030001f7fbU, 0xf6efe2f3ff0eU,
  0x3e701c8f70c1cU, 0x6d8d4fef7000803U, 0xfef9051414e11100U, 0xff1a01e8e600ec03U,
  0xf4041904f90b01f9U, 0x2aa00000239U, 0xffffffde000041f2U, 0xb7f00000011U,
  0x191afffffdedU, 0xf1fffffffcU, 0xffffffe5fffffffeU, 0x878fffffe84U,
  0x164400000007U, 0xffffff6000000007U, 0xfffffffd0000000eU, 0xffffff1400000bf3U,
  0xfffff7720000018bU, 0x2ad6ffffd3c1U, 0x86d00001624U, 0x26300000191U,
  0xf4900000212U, 0x91700000773U, 0x2e4ffffffdcU, 0x37900002b95U,
  0x9b900000881U, 0xf5ffffeef1U, 0x400000033U, 0xffffff8e000004caU,
  0xffffff5500000b02U, 0xffffffc3fffffe9cU, 0x400000003U, 0x2f2fffff5eaU,
  0xc6bfffffffeU, 0x54c00000647U, 0x291000054fbU, 0x24700000920U,
  0x2c00000003U, 0x290000013a4U, 0xfffffe8600000131U, 0x7e6U,
  0x2048U, 0x481153205c00212U, 0x12d405bd4736e900U, 0xe0fd230ddd020165U,
  0x83f1911e0e341f8U, 0x10091f04f0f91a09U, 0x44da2a05f2220705U, 0xf8f30a0437eecb29U,
  0xd31da1924b8e30bU, 0xefc8e8ef48560e1bU, 0x4481ed02140757ddU, 0xe0eec100309fedfU,
  0xf80ae7e512f3fbe0U, 0xed07f9f2040fd4fcU, 0xfffef761fb040007U, 0xfefaf3a00ff50afaU,
  0x810b3ff0a0c0df8U, 0x9d4fde3f5ff01fbU, 0x130a0efa01de92e3U, 0x1c1ff10f01030601U,
  0xfe14f013181515eeU, 0x236aeb080b39fd06U, 0xf4000dceefdf0ee9U, 0xd80d4a0b04007f58U,
  0xeeb09e90acf1f09U, 0x310fe6f518e6071bU, 0x4ebdbd17303dbd0U, 0x120120ea15fbdbeeU,
  0xd5171d0220130698U, 0xf41a22d602011b11U, 0xdc1a13811cfdf3fdU, 0xeef008e30dec170dU,
  0x8d1066efffbcc0fU, 0xa0d2213d5ff2bU, 0x214140802fc16feU, 0xf1a37041317fd11U,
  0x12dd0e0af80a040eU, 0xf3194db906c3e2e1U, 0x92f611acacb72721U, 0x7d0830c1a8de1609U,
  0x929fff01736c2e0U, 0x6302a7fc2ed1140U, 0xe2d849f3aafebf0eU, 0x498f3f3b5babdf5U,
  0x1f3fee024cc30c16U, 0x97b9bad1c218fe49U, 0xf70001fb02fffdU, 0xe308fc24010101fdU,
  0xf90800ff01fffd02U, 0x104fd00fffe0e04U, 0x5fbef00f4fdfefcU, 0x2fcfffbff000201U,
  0xf703fc7f0006fe00U, 0x401fff6f00405e9U, 0x103020902fe0303U, 0x1f545db660ff3f8U,
  0x950ebf2e1e8e719U, 0xf7d00fffe3525511U, 0x5af3a71ee8ecaddbU, 0x17c2fe382172e42bU,
  0x27eff30fd0057fe7U, 0x20d40f17dd1a0c01U, 0x270b1e13f028fffeU, 0xda6b7a2b1b231510U,
  0xf6b75a9bf9dcf314U, 0x19211d25818d2124U, 0xfc0bf920a60dd7e3U, 0xf90f12fffed0530eU,
  0xed24fd262b09f8e0U, 0xd423f527a1ff4b3aU, 0x18d190392e6f2ffU, 0xe7fb1215dedcf5eeU,
  0x8eaf320dc11b1a2bU, 0xb9fd095f27091cU, 0xf0420f810501f6ecU, 0xd80be1190a030ae7U,
  0xa6f9ff0f00f22302U, 0x112900e9e0e8fb08U, 0x15f5e5090516194eU, 0xfbfc0cec1100f8f6U,
  0x8ebfacd09240408U, 0x7c022f809ed0ad8U, 0x232609efbd4c7f14U, 0xfdf3216cf2f3fc2cU,
  0x19e8100bf31ff01cU, 0x43a4270df8e35401U, 0x12553b1700f7ebe8U, 0xf7141ff1f622f0e1U,
  0x8f6fef8e7f80316U, 0xf9330311365adaf9U, 0xf162f0c80140ef18U, 0x1ac62bee22100920U,
  0x4263eb7edeec068U, 0xe30c6836281d0d16U, 0x20e9ede5f033222fU, 0xf681bcf445055bebU,
  0xef3e5ed015b0f22fU, 0x2917e6ecec0c2131U, 0xab48decc0e142031U, 0xfe31541e5300d43U,
  0xeddcfc09030bfc0bU, 0xce10f75d0b0800ebU, 0x4381eb07fffa0efcU, 0xfd03f5ef291c1ec6U,
  0x5f94ee677070effU, 0x1332db0c02ee11fdU, 0x4e030a030af5fefeU, 0xf8ea0a1a5e0c24e1U,
  0x412111111f314f6U, 0x10802fb12fc0207U, 0x3df30c9afbfc0804U, 0x81dffc09fef10001U,
  0xbfb0af71bf9ceecU, 0xfb2120fb1f091007U, 0xfb1a00fefcf902fdU, 0x1efd035cfced05feU,
  0xf704fde53d00fa2eU, 0xfefffbf1fc08fd03U, 0x3611eae9d1fa81f8U, 0x50f0af4dee98e00U,
  0x4ebf805290b00bfU, 0x404110de2e93c0eU, 0x5433033414fbfef6U, 0xda07efb31a0c04fcU,
  0xe1ecc0ce6043922U, 0xf2e5f71a16f6e000U, 0x20f51beae7fcbd04U, 0x1e1fefaf1fff032U,
  0xfbf508f9f9fae502U, 0xd7ff735f25f1701U, 0x2200f3f43f260715U, 0x181bfcce13141527U,
  0x62de0f8f5e50deaU, 0xc5f604fff70a02bbU, 0xdbfb0757da053101U, 0xf61b050a07040d09U,
  0xd3bfe713c47ba6f8U, 0x18ba1e260e0c21f1U, 0xef0ef2f0e8ef1307U, 0x1786fb0cfafd0c03U,
  0xe6fbf6c8dfe00516U, 0xf9e9f7360101c2e4U, 0x1f524fb0decde00U, 0x6fffae9147f0014U,
  0xf06fabfef8f72cf8U, 0xba26f60802ef53e9U, 0xfe6f500010381a1U, 0xde19e3efc7d609e1U,
  0xff180f07f8fb2d13U, 0x5db5ded6e5f6230aU, 0x21f6bc33d8f216e9U, 0xdca2a1409f8c817U,
  0xf0bbd9fd1de81817U, 0xd001f24510e44cf3U, 0x2c4f40000fdf203U, 0xcff8f1e50101e9dfU,
  0x272dd004f43de9fcU, 0xfc1321fad681ba23U, 0x1b14fce229fc04eeU, 0xfb31da2effe2ddedU,
  0x2cf7180b0006ef23U, 0xcbd8160b22f9b813U, 0xfb1adcf2f51612fbU, 0x3b350fe761554f4bU,
  0xa154726cd9e09a45U, 0xfef10e5d2bde0ceaU, 0xf4b10a1aeebceadaU, 0x234c16ef2e14612eU,
  0xecb90dbd1d54ed74U, 0xe920c31decde5927U, 0x21ff8146006bca09U, 0x24cd270be256d350U,
  0xf7f721f22b0fe1f6U, 0xef48f30af7fae817U, 0x402015ff2181e3f8U, 0x40f641fd3eead219U,
  0xfddde615a04c26e0U, 0x8fa120906164df5U, 0xc01505e8f5e232eaU, 0xe10ab0fe071fefe9U,
  0x184b63140e0c150eU, 0x602fe201c9e5eb01U, 0xfecd0acb100f7f02U, 0xf1f4a4f2da1c1737U,
  0xff0f2b34ea11360dU, 0x81051f2e32da1addU, 0x9ecc1b9f640d7e6U, 0xbcebc80a05eee81aU,
  0xddd4bb461fdd3017U, 0xeef3c6500940900bU, 0x1310f904eef30808U, 0xfdf5f61405031f02U,
  0xbfff304fad06508U, 0xeb0ce43a1beb1427U, 0xe22e810912ecca08U, 0x4002f601eaf4feU,
  0x2900f7fa03f9fafeU, 0xac0110fb36eed8e8U, 0xffedf2db0401e9f2U, 0x3a52172d7f30cf03U,
  0xfcfafeb2403af8a7U, 0xf7fef40093f6ee5cU, 0xf7d9f7f124fbfe0bU, 0x5ede1530803e7e7U,
  0x7b2c00bfb0ef330bU, 0xa1ccf13d1186daU, 0xe9e61fefcc3ff9e9U, 0xa920f4ef6222bce1U,
  0x27fffafcc0e2070cU, 0xedd10f8ffffe02aU, 0xe901171d13fc190fU, 0xfc13abe174b241bfU,
  0xfbd612efbad3e22fU, 0xe50415ea1813c8feU, 0xe214f1f2f8120881U, 0x440f23fbb2d7ba11U,
  0xfd6d2feec37ef14U, 0xfffff82d00001e90U, 0xffffe84dffffd831U, 0xfffff0ea000024e0U,
  0xfddffffd118U, 0xffff80abfffffdd1U, 0xffffe834ffffe5b9U, 0xfffffb15000008efU,
  0xffffc443ffffe475U, 0x145700000f80U, 0xffffebc7ffffa9d9U, 0x45900000458U,
  0x1bb2ffffd58aU, 0xb1c9f97ff2befbddU, 0x5808e604f51b1cf9U, 0x1bfaf02ccf1a5514U,
  0xbb48df24c2ea51feU, 0xe713da44e1cef481U, 0xebd7fde938bb4afeU, 0xc47d30fac9f7da36U,
  0x21b5129481c40129U, 0xb9b0d1259539e5edU, 0xf60401eaff0510d3U, 0x7fffeff5fc083cf6U,
  0xf520f2e9fe2afbf1U, 0xe11bffef10df6fdU, 0xfa9a07267f0201ecU, 0x1701f9e4e00605f6U,
  0x110ef5f907ec1fb1U, 0x101807e82203b10eU, 0xe9f0e451edfcfa7fU, 0xf24fc1364d17f0eU,
  0x20d36f207d5e8c7U, 0xf4190d25fc281010U, 0xf411fe070201f55bU, 0x804c60108f1fb0aU,
  0xf17f000af3f3fb2aU, 0x8f402eb81165310U, 0xff1f2b120941e614U, 0x1d18f22b055a1803U,
  0xce8c04c0c8ff67a0U, 0x7f0108fa2992c31bU, 0x17aa1d42a68f386cU, 0x303081e03c68114U,
  0x5004c6fa1534011cU, 0x19b8ead202f91d48U, 0x3dcd56e5011ce40aU, 0x29022e8131f037deU,
  0x1cf81202e5f4d31fU, 0xaf31601fe0809ccU, 0x1b0a87e8465daedbU, 0xbeeddf7feefa91e9U,
  0xf24716e306ffebe0U, 0xbd4122ee1a026738U, 0xbffac15828136b1U, 0xfd08ec260a16f339U,
  0x1e57511d39e47ffU, 0x4b0a318905617f1eU, 0x2007e5f31c2d100eU, 0xf9a13ee2c7d932e7U,
  0x5226feba140a7ffcU, 0x25e610f80b1f50f2U, 0x9bf4edd014db81e5U, 0xd6220ae8f3510dd9U,
  0x482bb781ec13382bU, 0x6afd2f68bfef1f9fU, 0xaf0fddd01b4ab46U, 0xfebfdf80681e2U,
  0x1c1dbfebe9e6443eU, 0xfae0230beaf202c3U, 0xd8cf0423ebdfdeU, 0x2ebef2bea32d47fU,
  0xe22ec13d7440bf3U, 0xee0901eafff81bdcU, 0x7f04f8f7ff093decU, 0xfb1af7f0002000f7U,
  0xd22aa0feefd13ef1U, 0x210dd77fb3e7d2ceU, 0xedfff0f4f60221ffU, 0xe2f0f3f2f61b81b1U,
  0xcaeff50beed8fe00U, 0xfb070608eff7f629U, 0xeecf7f9f5fd2881U, 0xfcf838efedf51cf5U,
  0xc9d0ffcfdfcfac1U, 0x1bfffcec1bf509e8U, 0x7f0dfd040209140cU, 0xea28f4edef5df0f3U,
  0xf2f44a49f75d49deU, 0x7f3f3726d2606021U, 0x2502a9233aac2b58U, 0xdf620f603f01c03U,
  0x7f090a0efeff29f0U, 0xfc00fa05f306eb08U, 0x7f25f95ff1f60ccdU, 0xef9070be7fb1efeU,
  0x13fe0bfaf2fc27U, 0xf806001efeffa212U, 0x4c177ffeecf49bfeU, 0x11f01c29d60ebeU,
  0xcd440d20dc0f1413U, 0x56d12ed7c51bc812U, 0xe7ce722a0239db7fU, 0xe71a0133fd031203U,
  0x2611dbfcfbaee81bU, 0x7ff6c3022b1bb102U, 0xe0daf11f81e30723U, 0xd1495f26fd11382eU,
  0xed140893e935d5edU, 0xf112001d7feb040eU, 0xced0ff7ffd809dcU, 0xf2fd05f305dae820U,
  0x2ce33361ba2c7f1aU, 0x38dd1311e9504801U, 0xfd17e0e009b8cecdU, 0x211403da0a1d02d4U,
  0x14f9a9ed0d38bafcU, 0x1f0ea7ff4d6d1f8U, 0xb6efff5f02cbf50cU, 0xcb21de8158ee06d3U,
  0xeff4f2190d3550d4U, 0xfdf3f61b05fe7fe9U, 0xea0a4b07fee505fbU, 0xfa260b36ed06eef0U,
  0xccaa312f6be1d22U, 0x7f082669bd2a0ed2U, 0x30e4e724adfafb60U, 0xd426f6e609e6f1f3U,
  0x7f10ffe8f0046b2aU, 0xf2ff020d0af7fee1U, 0x381009d60031f41bU, 0x2c84816cbd41d01U,
  0x5d0e16cf17297f22U, 0xed02f21aecf62412U, 0xf80d7f0605f602faU, 0x90fe8c2f13e0f74U,
  0x3ed9ff03f3444bd8U, 0xdedc1118112c81b3U, 0xe3dd5b90e5d1267U, 0xf9080616fa05cb45U,
  0xe3ffce13fd08f60bU, 0xfa7ff908e304f947U, 0x4ae37fed122bdd0eU, 0x42ee16b5fce62100U,
  0x36f024d7f34e3c18U, 0xfbfefd0c000e7fecU, 0xedfa47fdf5fafef1U, 0x429032df10af4f6U,
  0x1cf80b0f19147f15U, 0x61f219fe17190517U, 0xfffe21008f91318U, 0xede1812142e3e8f7U,
  0xf8da1911ea05f165U, 0x426f8dee81c03f0U, 0x3f004f801fb119dU, 0xf6ff42fcf6080ceeU,
  0xd8101f40c0efcd0U, 0xe1fbf2070b4cf4U, 0xc500810d070161f9U, 0x6e327ebf529ec47U,
  0x3e9d191debfb0112U, 0x7ffd25cf07032fbaU, 0x33ee1310b1f9e746U, 0xfb0381ee00f8040dU,
  0xfd00fdeffd0df9f9U, 0x503f4f707f5fcffU, 0xddff0422b960f93aU, 0x1ad235180218c9f3U,
  0xdef1be16057f0a4bU, 0x1222eb04f3ec81faU, 0x2e00d9f9fe0e35eaU, 0xcd4f5ec0ce8ff1eU,
  0x3d710f90053b22d5U, 0x81e0e60efc0db36cU, 0xce14f7c34eeadeceU, 0xf913092d7f0b7000U,
  0xece26e8fb08f1c4U, 0xc1bf7f10fbff929U, 0x4326fce4151e4ab1U, 0x15d701fc14e5bbfaU,
  0x2efef17f13085769U, 0xf7dcfe2be1419481U, 0xf0cefc17d8f7f306U, 0xb10f200e2ffef62U,
  0xecf7f238f0d94addU, 0xf4287f050ed1fe13U, 0xd600f2b6de05e373U, 0xe267d6150c5ef8edU,
  0xf7e31313683903f5U, 0x31f014ce81c81cfbU, 0xfc110ee6f6d1f80cU, 0x13ee25d7ad22fe06U,
  0xc5fa7ffb0a071826U, 0x81eb0ab10904ef27U, 0xf3060bf6150ffb0eU, 0x8f0f90808fe05f1U,
  0x10ffdee2f2c25802U, 0xba8d813278ed66ddU, 0xf8e024e1cf51d53bU, 0xd6e24c4ef5f2e5f9U,
  0x200dee8137ff0dceU, 0xfff800f4fb302b02U, 0x8b4c2508eebef0ccU, 0x81f701ebe2c8222dU,
  0x54b8c52704b4f511U, 0xf502f10cfff15abeU, 0xf518440b29d8bf13U, 0xecf7f724f6f5f77fU,
  0xf303142702fa0115U, 0x3746d9cb8481e033U, 0x4fe9bb18512fd5fbU, 0x4a02f78c17f9e43fU,
  0x2d1d237fc5f6fbf9U, 0x1ef0f06dd07a811U, 0xd911f635d14019feU, 0x2ccbcbdce500de15U,
  0x7f0af2b431e3d0dfU, 0x6ca0cf412e5ffefU, 0xb62f4c08114cd00U, 0x2c2247f86bdf1411U,
  0xe34f0621067ff9f9U, 0x3919e9e6dc11d1ffU, 0x29e12feec3fafe18U, 0x3d3f0e4da34f6fbU,
  0xe9aefae1ef7f03ecU, 0xba1b45ba06b449d8U, 0x1e60fee51b0cf896U, 0x7f04f905fcfd7c54U,
  0xcc43f3f73322dee2U, 0xdff5fc3239ef171fU, 0xf1ee4603e1e72eefU, 0xea16fc81facfd50bU,
  0xaf8071c13241a21U, 0x81fa0c310b0193d9U, 0xf00d07fc19560007U, 0x76be1ada0422e908U,
  0x7ff626cd0dfc49e4U, 0x19fc1afacd01af25U, 0xd4f9edc9f500a809U, 0x81c9b70b25dad6ffU,
  0xde0016e7121804afU, 0x25060efefbea7f3eU, 0x4712f2f21a0af014U, 0xfde0fae90ee215d9U,
  0xbd0dffe9e70281f2U, 0xa205de06eedc03f6U, 0xeeed050009f703e9U, 0x2fdeb09fcfc112cU,
  0x19f2cef9fbdd060dU, 0xfe7f0e0de2dffc15U, 0x5f8f720fa048a09U, 0x64f67f22280790fdU,
  0x72513fc26d3faabU, 0x23c50136f205d832U, 0x81f60afef0f7b7feU, 0x20cc101bd9d10218U,
  0xc80305e9b71102U, 0x13d3e102e9f5e303U, 0x270c30157f1dcf2eU, 0x1bf0f70d7fd8ff1fU,
  0x35dcf5eeecb3d1dfU, 0xd51114b8c65de4faU, 0x2f0b0c2409f37f1bU, 0x350518ff111bfbfbU,
  0x701f2010afa0a09U, 0xfa0612011237fdf7U, 0x663f5c081fef112U, 0x1faf900fddd13fcU,
  0xf4fd810bfef2050aU, 0xfa0005a50703fcfeU, 0xf802faeefe120502U, 0xdfe1f030eefc10e2U,
  0x2bbecf0f39c2ffU, 0x9febea4beddc81f1U, 0x420581bccb1a12f5U, 0x14e0dfc12a23ed00U,
  0x4313f0622a1f6706U, 0x2e71fffff5bcU, 0xa500001320U, 0xfffff594000008ecU,
  0x422fffff60cU, 0xffffff55000000ddU, 0xfffffb49000086dfU, 0x381d0000957dU,
  0x1ab000012d5U, 0xfffff9c000001291U, 0x74200000c81U, 0x2f9fffffa4aU,
  0x4fd00000836U, 0x570efffff54eU, 0xfffff7930000576fU, 0xfffffed40000038bU,
  0x1c4e00000d9dU, 0x3637ffffffb5U, 0xa8500000070U, 0xffffeeba00000438U,
  0x4b600004de8U, 0xf16fffff737U, 0x40d00000bc3U, 0x4510fffffaafU,
  0xffffff4f00001748U, 0xfffff5eb00000254U, 0x30dfffffcbaU, 0xfffffcda000008fcU,
  0xfffff4ee0000065cU, 0xfffff57000000f71U, 0x94d00000990U, 0x8f3000025abU,
  0xe5a00000172U, 0x1201fffffabaU, 0x63e000009e9U, 0xd39000005b3U,
  0xfffffeee0000096cU, 0x94a700000617U, 0x17effffffaddU, 0x1886000004abU,
  0x880c000004c5U, 0xfffffee200000951U, 0xfffff99b000010f3U, 0xfffff8b8000006beU,
  0xa6b00000650U, 0xfbd8ef0509f7ff0aU, 0xf6f608fdf00b7405U, 0x82f40bfbfce6e2d6U,
  0x4fadee50c1309e8U, 0xf3f0f908fa02f90cU, 0x8ef01fc29020f0aU, 0x801fbe2e6e7fafdU,
  0x1a010dffebfd01feU, 0x38f100e60cf8e412U, 0x17fff0a1309f3fbU, 0xcef401e8f7e5fb02U,
  0xdd340ffcfbed0d22U, 0xf2e80008dffc69f9U, 0xf6cb050df7b27f7fU, 0xf8fb008153de5dd6U,
  0xf301f2fc9b092e3eU, 0x49ea5099cdce707U, 0xfafe0c81e57f06fcU, 0xc7f81eef5cafddfU,
  0x7f0deaf8fa81fcf4U, 0xfec8ccebc92acd03U, 0x7cf0fbb128e80b0dU, 0xaffe010800fc05U,
  0xfaf20c01f60c36fdU, 0x7b0c07fafceae6d8U, 0x1fe81d8ef0f0202U, 0xf9f7f80aff04f9f0U,
  0xf6720dfef8fe090bU, 0x8fdfd0f11faf9fbU, 0xd1f6f005f3ff0afeU, 0x30900fef9fc0213U,
  0xba060a0b04ec00U, 0xf0fafaf6f01905feU, 0xd9d77f81040bfef0U, 0x59c81374f5f67fc1U,
  0x4810c0a022af4b6U, 0xf15bfdf37f35ee12U, 0x7fe20afbfc274015U, 0xf971b60c02d1465bU,
  0x2ef5ff1886e40af1U, 0xe4effaed81170ae2U, 0x5d7f457f8109810eU, 0xffcebaee58f096f0U,
  0x2d7ff53b337f2dd3U, 0x817f2770817f8181U, 0x817f7f7f7f7f947fU, 0xcfd9817f7f7f3039U,
  0x7f7fae6bdd81817fU, 0xf27f7f817f81817fU, 0x7f0a7f7f2b7f8181U, 0x817f7fcd81167f7fU,
  0x7f4d27811a7f817fU, 0x41ba810a54782881U, 0x7f067f7f8181617fU, 0x810c7f7f8101817fU,
  0xf1a5c00c18c40902U, 0x262903feedfc3005U, 0xdad019f8fd1fe5abU, 0xf713b8f47135ff02U,
  0xf7c5f60803072bf1U, 0xf58181faf0ef3bbcU, 0x1ed908fe29dcf5f4U, 0x21f305011e1530c4U,
  0x1aca4ae03b040217U, 0xfcf4bbe04a0781faU, 0x11f6d718349f03b8U, 0xffd0ef1609f6010aU,
  0xeffcfb06f6092c04U, 0x7f0a0d0002f303f3U, 0x3f3c4edeb01ffdaU, 0xf303f00cfb02f616U,
  0xf7b207f9c2fe0d00U, 0x701fc0b01f9f7faU, 0xcbfcf807e7f505faU, 0xfae3faef1a0aeb0eU,
  0xfdb4fe0c030b0e02U, 0xaf5fee5f3cafaf9U, 0xf12210e014de0d27U, 0xfbebf713f8041bf2U,
  0xd2c903faeeb8cb51U, 0xf3fae81553ee3a9eU, 0xefcb0315ee122819U, 0xf64982fb7fefec04U,
  0x3f0237918a3fdf8U, 0xf5c92204f4c605caU, 0x2916f0f4f50600faU, 0xffebcdce231e3f4U,
  0xf4f5f5b230e911d3U, 0x7c7fefb0301fc07U, 0xfcf0fffaf50606feU, 0xad020b0100ee02e1U,
  0xfefe88f5cc06f6e2U, 0xf912ed07ff00f2faU, 0x90314fdfeff0604U, 0x600f6fb12fbf8faU,
  0x11f70209f3fc03feU, 0x30dfb02f1070111U, 0xfd48060afe071502U, 0xcfafdf2ef1607fcU,
  0x6ac000000b4U, 0xcf800000683U, 0xe600000ce6U, 0xba7fffffd3cU,
  0x12b3fffffe20U, 0x327fffff8adU, 0xfffff6d7ffffebd7U, 0x22e00000247U,
  0x6000001c69U, 0xfffffcc900001786U, 0x1b81fffffe59U, 0x319d0000074dU,
  0xffffff7efffffe6bU, 0x892000003a1U, 0x4aa0000024fU, 0xfffffb6dfffff4f0U,
  0x58b000007ecU, 0xda00001277U, 0x20100000f85U, 0x81000001d1U,
  0xffffffff00000422U, 0x2350000000bU, 0x2a60fffffe64U, 0x116d0000002bU,
  0xfffffdfa00000075U, 0x210000000dfbU, 0x38effffffddU, 0xa1fffffd09U,
  0x177000018e4U, 0x779ffffff65U, 0x5e200000ba1U, 0xfffffc770000041aU,
  0x63b00000186U, 0x1db4000001faU, 0x14c00000117U, 0xd0000145cU,
  0x1821fffffcf4U, 0x61000000bbU, 0x98000000676U, 0xfffff22300001c40U,
  0xd8700000007U, 0x1c900000e71U, 0x36a00000094U, 0xffffffbc00000037U,
  0x94f7e607330bfff8U, 0x14230b17f8fdf924U, 0xf87f15c70dffef05U, 0x6fbe3f63524eddeU,
  0xdf6fef8ee251e16U, 0xfde3b02ef3cf07f8U, 0x1124fffecbf8fbfdU, 0x150af913f9fa06bbU,
  0xe4fb1604e103f913U, 0x4e9187d0bf10311U, 0xbe20deed21d0609U, 0x2c4b0cfe21f6ef00U,
  0xf7e60501fe372005U, 0xeb46f7f006011222U, 0xaf90c172226fff1U, 0xcda018e1afcf5f1U,
  0x3200407ffc17d808U, 0xe310da2af2fedd51U, 0xeceae0ebfe04e3b9U, 0x1e0ceeea01f1ffd8U,
  0xaeefe645f50b2ef7U, 0xfafdfa1fe4ed1e10U, 0xde3c0281dfd3dd0fU, 0xfafaed03232508cfU,
  0xeeefe8201709f90eU, 0xdf0bf2f6c8e2ebf3U, 0xd6ec03e3e1f804cdU, 0xf9f6d523f6fde001U,
  0xfac0e4fbdbd8f5f7U, 0xe234d5e40d38170aU, 0x2e08c691f92bf6ceU, 0x41f3efecc1030825U,
  0xf1b04e9edee19f7U, 0xf7f925f313f5390eU, 0xf6eef6fbfd10ff07U, 0xb6fec5ef8e46d53dU,
  0x7f05f8140047fc09U, 0x4ed0916d9eff9d9U, 0xc6c90bf4eefc09e0U, 0x23e9f8fa01f8dfU,
  0x130f010321ea07fbU, 0x101016f511012521U, 0xecbff1fe27e510a9U, 0xe2fbea020b37ff0dU,
  0x92101ea09e713deU, 0xeade0a2f0cf1c7dfU, 0xfd818d3e3fb18e8U, 0x3ed709e445daf606U,
  0x4f00f8dc27d918f8U, 0x200470135e71913U, 0x2e52c07fb1f3dedU, 0xf3e6f87ffbfad9efU,
  0xd5eefffef6aff201U, 0x1a0dd6ec130ce7f7U, 0xefc8eceee2f1faffU, 0xfe1302e8ed200901U,
  0x10b02ed56f704faU, 0xf6116511ee02c116U, 0xeef30211fafa00f3U, 0xf10181fdd21aeef3U,
  0xf8090e0e39fbfb13U, 0xedfce9f716e543e1U, 0xd5e1010f9eeedd3U, 0xdecfe02ee28fe14U,
  0x27f4032903f512faU, 0x249813ebf1e9f9U, 0xf4062df4c9014126U, 0xfe09c0010ffdb309U,
  0xe4d0b3213bd90e26U, 0x1acb101c7ffd40f0U, 0xdfff19f327fdf811U, 0x2ea06e7e1e51aceU,
  0xf309a2f3e200fd27U, 0xf4031976fa3df8c1U, 0x49cf12dedb0de122U, 0xee7e6fb002fb0f6U,
  0xe719e330e41841d5U, 0x31e151b3d0be32bU, 0xf410f51316cadfd2U, 0xf9e2e6bd06fde507U,
  0xf2201e08500711f9U, 0xf4d31cf5ccc2f6e2U, 0xd50d59e1e4da0cdeU, 0x2c8f3083bd81be3U,
  0x1739107ffde60c05U, 0x1222f3073d412ffeU, 0x13fbf9ea030a3630U, 0xef31f20900ccd90fU,
  0x705fbe7e5d8f1U, 0xfe01062204e4fbfbU, 0x8ef06e7f10908U, 0xe2f5fbf4eec3d40cU,
  0x41515dfe3edbe11U, 0x10fa6afafcf5ff05U, 0xec01e00906d418f4U, 0xe60ef91203f8ed03U,
  0xf801fd0503fcfdfaU, 0x1ff812f0de1b9fbU, 0x200e6f3d21df8f8U, 0xdece226970d0702U,
  0x1d33fb361111d214U, 0x9ba1557fa18eee5U, 0x228f9fd1719e246U, 0x185a0701d3101615U,
  0xfb0d2cf1100d2fe6U, 0x261218eff2db4565U, 0x333cb07fbea1215U, 0xfb1a1f121e2e212dU,
  0x81080eb906ddbc18U, 0x28e2fdfe2601f4e1U, 0xf0fdfff71a22ee0dU, 0x29d3019ddec68113U,
  0x101e47fde6c7f2deU, 0xd757ff1403f3f40dU, 0xc924eef8f95d263dU, 0x94167808f8ff3b14U,
  0x611ec00fcf802efU, 0x15e108072af62075U, 0xfacb13e8b7fa2023U, 0xf11708f8040225dfU,
  0x18f5eb16f7d92b0bU, 0xdddaf46944a6211cU, 0x3cfc4c15dbd0b38U, 0x275853f20dfdc00dU,
  0xe9dcc5c8fe4248ccU, 0x13e8814b1ab3994dU, 0x210408c645031640U, 0xd83aa726ee3508aaU,
  0x3c454dbf3c62f2e0U, 0x513e024424ffd51aU, 0x91316605cfd4cdaU, 0xec4a0b9f062d600bU,
  0x500fa1b12d3000dU, 0x71a1233aaffef03U, 0x25f081f91ef54bd5U, 0x13fddad41325050cU,
  0xf0879f908de251dU, 0x915f7f0bf061ceaU, 0x903140ae4d2b30cU, 0xf7c6f50521000f14U,
  0xed0205100a01f405U, 0xdb2334e00224041dU, 0xc08cec022f5170dU, 0x4d1df3101217ff0cU,
  0x533fd43fb261418U, 0x2d9fdee05e7f40aU, 0xfd27f5000d1d0df5U, 0x26fafdc9f62d0e1dU,
  0xe131c35f830fbe9U, 0x124ed0ae5f70481U, 0xf50c44ec0810d4ffU, 0xbed0403fa110ff1U,
  0x7d0c00ca04fadfefU, 0x17c6fdef1af3080bU, 0x12acb1811d0bfbeaU, 0x2ff0bcf300e32274U,
  0x2dff17e760e40decU, 0xdcd80d23725117ffU, 0x4a30f7091bfa1377U, 0x2a21e6e4fd132b44U,
  0xb73e41d1828efe8U, 0x28e9d30f38f6dbb5U, 0xdf361ec73a025230U, 0xec222f185906ee33U,
  0x1bc52c331c0cb617U, 0xe8e4e9fe8af0fee1U, 0x3f109e4edf616f3U, 0xe72a107f075210f4U,
  0xf5ecfaf7fb22fe5dU, 0xf663114c02f9f1e3U, 0xfff81fcff9fd0317U, 0xceb3bea1fff2b87U,
  0x20fa2ae40efe1903U, 0x5e806f4e2fc0313U, 0x59e3fd34eae4bf10U, 0x2030ae4fb0e04c7U,
  0xc0114dda12ba20fdU, 0xdc173a1e0af15a0cU, 0xf0ab01d00902ea17U, 0xbf03dd24333025f7U,
  0xddd2103efd2d81f7U, 0x5adeea9ef0cfb7d1U, 0xb313fbfa99de305cU, 0xfa04c93813f79b0fU,
  0x78ecbdbd10ed3a5U, 0xa8ddbef1d0e2beb4U, 0xd0f0fb29d13f24efU, 0x12f92be6f31d27d7U,
  0xc07ae319efebffedU, 0x3d241a01f10120d2U, 0x216efff8eec41502U, 0xb51cd7144ae8251fU,
  0x251c34f8250512a1U, 0xe6f31ffe0c2201fbU, 0xfb9bedfb15122409U, 0xcb1de9fb29972c0fU,
  0xf932082c180ee8dfU, 0xdd7fe801fdeed5f8U, 0xde13e91813e89dd9U, 0x1f0614150c320cfdU,
  0x81cf1b0533752f47U, 0xb7eaf8150c4be908U, 0xe2e5fb1f3be8dcd7U, 0xa4e30bf0f0fd160dU,
  0x8f0dcebec14fefeU, 0xdc5021214de010eU, 0x13ed1002f3c7080aU, 0xe396e3df01062358U,
  0x40f0cefff340616U, 0x140310f9e2b93222U, 0x4077ffc17ecbd01U, 0xfc0ddf2932e5fd0aU,
  0xcd1d814240b3de8U, 0xe401ef0720171b15U, 0xe40703edf51514f1U, 0xfa0890f9ee02ddf9U,
  0xff000b0f03ae00e3U, 0x52e2ff28e512ed14U, 0x27020e100129dbf3U, 0xfc13030cf5fedae7U,
  0x9f13601fc0d0fe7U, 0x2ac0148ffa460840U, 0x1ccd0fdffceffffdU, 0x230cf5e91d16f2f2U,
  0xb00e09bcf6a04234U, 0x4604043c04101b0fU, 0xea44290de2f622d9U, 0x10105020fec25cdU,
  0xcf0318220df40c08U, 0x2a16f3d529e2cb25U, 0x97ff8e8100edf08U, 0x5fbf5eb1202f504U,
  0xfc0cfa0c060e1507U, 0xefff9edf909f5fbU, 0x1110e8f3ff0ef3fdU, 0x13f8fef0ecce15faU,
  0xf09e912030102feU, 0x60a052100fa08U, 0xf70eef033ff90bf3U, 0xea81050a8a12ea06U,
  0xec0b18f813f9251bU, 0x2170cef1200fd0cU, 0x810efd0cf304fb0bU, 0xfc00fb1b0513ecfbU,
  0x27cceb1704f207f6U, 0x7020f03f2fb0a0cU, 0xcfcffd0060af3feU, 0x1a07260f01cc06f6U,
  0xfef80f1b1e09f9f0U, 0x340311ef0207fb28U, 0xc16fd0b150306feU, 0xa0807b5fe082afeU,
  0x5f5f80a21f3f902U, 0xe0812f20bd1fdfeU, 0x7420301ea13f708U, 0xee1d32ebe80de8f5U,
  0xfc810ff7ed02e602U, 0xb9fafffcee312510U, 0xe6020214fc0910c0U, 0xfe0522ed06f61be2U,
  0xf4f20300e6fd1b0dU, 0xe71222fa0b01dd17U, 0xfef7020109e7ef04U, 0xc30f4f3fafa2a00U,
  0xdb2ffffec61U, 0x21d4000059c3U, 0x16300002414U, 0xfffff3a700004d98U,
  0xffffe7330000399cU, 0xffff5539fffffaa7U, 0xfffff1d80000313eU, 0xfffffe6effffa0a1U,
  0xffffcc190000598cU, 0x37ba00002237U, 0x48e5000008a3U, 0xffffe36e0000025fU,
  0x32ef06150e027f2bU, 0x92fd30fc0a08b21cU, 0x81e1410f60804ddU, 0xc1e2143381d216fcU,
  0x1f59e4db1917d9b4U, 0xdb06f3f2e724e1bbU, 0xeb42e6040e6309e9U, 0xf830fa2b542605f7U,
  0x19ea04e281f80efdU, 0x51c00acf17e57703U, 0x2313f406476ae6f2U, 0xd31922a1f9033381U,
  0x542c5dc053502cdU, 0x470ee1791d4081f9U, 0xfdf0e048b20107dfU, 0x51af2170543b40cU,
  0x5e067f143a1290faU, 0xb06ea11dffa06d0U, 0xf10b810001eb13fdU, 0xd0e045cc3fedb08U,
  0xf201f6e1fe070fedU, 0xa2e7fce11e9fe05U, 0xea08033f08dc00fdU, 0xd30e17ffec030ec8U,
  0xe4e0f7e70df681beU, 0xccf5f80d0afae2edU, 0x90af9dfec1aee2bU, 0xf9dae6f396065ccbU,
  0xd6220c0314e8e7d5U, 0xc46c3416e58137e9U, 0x2723e4ecdae5ef10U, 0xb49e407258123eeU,
  0xb4076e2ccbf23299U, 0x1a090dc71812da22U, 0xcd0435afa9291707U, 0x81ed9316ab0f3ff4U,
  0xf30dfe1333f92702U, 0xfa130dea12e1d2edU, 0xbaf1dde108148111U, 0xf21ce8e5fcce810aU,
  0xc33d12f40a0125f8U, 0xdbfc1028d80525f3U, 0x1e0813a67fe90efbU, 0x20e7061208fae896U,
  0x35ef0ce91117e72aU, 0xcc44fbc31dfb82f9U, 0x8307cce82d3ec663U, 0x10eae5974811f381U,
  0x4033513f70dcb22U, 0x7ff86722fce5b7ffU, 0xafb2c3ef5e8ebU, 0xf82c25ecfcedfcf4U,
  0x7d4100cf028e50bU, 0xe9fe7feaf306041bU, 0x2c482bb312181b04U, 0xf6d42cfcead0e804U,
  0x53ff1f092d677f42U, 0x5de2ffac3b1aeb1bU, 0x2d051616fde23417U, 0xfee22802d6e18112U,
  0xf3162b26044ccf1fU, 0xfd247fa85aef21f7U, 0x12050a9abaf40df1U, 0xf3ec1bfb291a11caU,
  0xdabef7c8e058810dU, 0x5af5b0862c3aaf53U, 0x4830f625f2c3811aU, 0x7c26a9041d2518fcU,
  0x90d6b70ef61150U, 0x5fb13f7fd077ffbU, 0xf3f525f108dacf28U, 0xfa290d06f8f8091dU,
  0x309ae7d012d081ceU, 0xd912eff812f59ef1U, 0xe3e912b98b0e1953U, 0x5e7f431db347ffeU,
  0xaee1e02f3f8f817U, 0x92cf81729d6ff2fU, 0x10fdfc0aeae64f83U, 0x40e5105f91731f6U,
  0xd81ff060ceb07d4U, 0x3109ea08dee71937U, 0x811907f31f20a0f4U, 0xf8f70deafcfa0debU,
  0x67ff307fbfffbU, 0xfc02fe46f003f905U, 0xff02fdfaf3fd02feU, 0xfcfbeee2ecf3ef07U,
  0x2ffc070a0a0f81U, 0x306041606f5f6f3U, 0x16f71807f545e0afU, 0xe6c7d0f2e705abeaU,
  0xe805d8813a10ec0fU, 0x3a11f6bbece6fd14U, 0xf8811b364ee234f5U, 0x34040710130322efU,
  0x21f71620be1a40daU, 0x2eea0f11db0a1d7fU, 0x1b2e160ae8ba1a3dU, 0x25e437df2c79f8f2U,
  0x463eee58109eb0aU, 0x17042feb20ec3f18U, 0xaaf4d55f0dd610e8U, 0x16ad08fc4133d03bU,
  0x81f648e4ee06d910U, 0x71981e2fcf506f9U, 0xf113f5a517f1f3efU, 0xf8fe06ef1110feccU,
  0x1b22ec04df2753e1U, 0x81e41ae922178e04U, 0xfb1adaba5fecf12dU, 0x4c1d578c04beea12U,
  0xb483217f52cc3f2aU, 0x3815960ae4f72cc8U, 0xa0c6dc7f55bb49b6U, 0x2dd4eeeff849df33U,
  0x1a35b8efe3cd082eU, 0xf0f9c90af7f1f82cU, 0xdd176b10dadd4212U, 0x14040e810b0411f6U,
  0x30b463edf0d4d4f3U, 0x37c9ff811406baf6U, 0xef0ff87a79fef0f9U, 0x91a409b809346195U,
  0x4cd92804dfcf3af5U, 0x7f232bd106f4d4U, 0xfca4df1616d3ace0U, 0x7c2fdc16020f7f45U,
  0x2a094b2990101ea8U, 0xdd0e3c9f39d35dfU, 0xede08129b218f002U, 0xeb05fe3f5a08f616U,
  0x2500e5b83bfc05f0U, 0xefc6ef0de20cffbfU, 0x44232cff09811804U, 0x16ce52161214f1f8U,
  0xaf30f81321c321cU, 0x29f800f9e806f11cU, 0xe6fa9917ffee012aU, 0xf2185408dbdb310eU,
  0xf14108105090aedU, 0x23fdf899e3e51d15U, 0x24f6d0053744462U, 0x4c0ce12d2030f27fU,
  0xbb01d67615d717cbU, 0x300d8112134192d8U, 0xaefac7400115f1c0U, 0xf5c904371f7407daU,
  0x1d7fdfba811cc41cU, 0xc6061ae614f22400U, 0x11fefd10f405fe42U, 0x2202da06000b01f6U,
  0xf97f020fe8f5062eU, 0x1a09100309fcb30eU, 0x62047de5e8ea8103U, 0x16f31e1702fed5U,
  0xf7fd030b0b090ae8U, 0x7ff2f205f4e7513fU, 0xfc010209f0fb0f06U, 0x11faff24fbf0a10eU,
  0x7f0cbb1bfc1b5be3U, 0x18c60901f201fed4U, 0x140c0c0fdf04f727U, 0x81050dff040ebdf8U,
  0xeef3f5fd01fa04f4U, 0x7f6cfb2feea10320U, 0x3168002448671cffU, 0xf1d7d7e82ad7277cU,
  0x24f9ef091702e381U, 0xa40a3015f4423be9U, 0xfb792302ea2206b5U, 0x2ad90c2d1e2f28ceU,
  0x7d1fdfeede7f07fU, 0xe41f19cfec1214ecU, 0xf7fde407f2b0fdfaU, 0xf1ba07457ff116f1U,
  0xe40bfa01e813e9d2U, 0x5bce628eb4431c6U, 0xedde2c03f001e8f8U, 0x238de011de8f57fU,
  0x40a81ee03f7f508U, 0xf111ffaf15f9faefU, 0xedff08f7071007e1U, 0x53d7eeb6255105f2U,
  0xed56fcddacd80b09U, 0x591a810316f05d0eU, 0x5f20216f6ef28d8U, 0x7f09ef180cf94727U,
  0xf9261810e9dd2306U, 0xf15d19cfc33966ddU, 0x81e41bd50dd69be5U, 0xd543e1cd6ae5e712U,
  0xd9dfd30ecde9c8beU, 0x7f1bd80afcfa6a15U, 0xf6241a1dd3a93b01U, 0xd734a7f2000e2a01U,
  0xd430f87fee062706U, 0x1020581a3041903U, 0x10cc1dc02d081d9U, 0xea35fbc8f80c23ecU,
  0xe4ff170ac7051bf0U, 0xc8fe0a4824c8eff7U, 0x4705e1f30ade04e1U, 0x24ee0f2ae75c7ff7U,
  0xc1df207f0bee081fU, 0xec14519328eb53eeU, 0xfeff0287170bfed3U, 0xc7eac67300951deeU,
  0x84eff97ff30801U, 0x8601f1f2cc08d5ceU, 0x14e106fa101a0b02U, 0xec29fde1d7ee0908U,
  0xde078106e7ff14d5U, 0x12ff05e9f40427bfU, 0x10219f11fe3c90fU, 0xd520ead60bf0137fU,
  0xff3b81c500c1a233U, 0xc44f17ad20ff2809U, 0xe2f42b21e11115bbU, 0x16221dcffb1deb09U,
  0x11e21e1ce6110110U, 0x27f37fff20063245U, 0xcbe9db4509470fffU, 0x402e02b5b059cef0U,
  0x97dd7feb0ff3ea4eU, 0x2a9ff581ff2e1aceU, 0xeca40fdd87e036fU, 0x6f3401d4e9e7fc2cU,
  0xfc2210b712edbb21U, 0x8105dec700fd86ecU, 0xe81fffcbe727eee0U, 0xe2701fc3c1394be5U,
  0x810411e00aceafb9U, 0xc742fbe26c07f9c4U, 0xfb9a4e02f38e1323U, 0xace80896d6e27f01U,
  0xf61d19a27604f423U, 0x349de85817f5f640U, 0x1af6e71ada092d07U, 0x29e4464297170a81U,
  0xf3b2146a223022d4U, 0x117fc0dbc2e5da16U, 0xb60898ecd8eff1caU, 0x12f21edd2de55004U,
  0x53170af012fde18cU, 0xce0e9e0f67fca0bU, 0xec1703d30d06e1b7U, 0x7f08d8f711ec4a13U,
  0xd611fdcf15050ee8U, 0xdb0bd41eff0df51fU, 0xf523480affe2260cU, 0x18050881fb05ec08U,
  0xf9642dd5fabd1be6U, 0xfd03f585a60bcb08U, 0x2414f8e281f7efc7U, 0xe9de92f819cd1deaU,
  0x4d09f17fa434c645U, 0x24fce5edca2c0612U, 0xe9f8fde111e881fbU, 0xf807d5e1ee01d9eeU,
  0x1acdf6d9ec1ae8fdU, 0xe403ec15f2f1ea2cU, 0xdf27691804cd4206U, 0x130f0881f5ff030fU,
  0xfcbee1f7f787d92cU, 0x30ec7f3491e2c415U, 0xef34efc06407fef0U, 0x6f98105fc0503ffU,
  0x202feb40c0103fcU, 0xfd0206fe080302f8U, 0x3781ed3030f1ecf4U, 0x45f40213ea321c37U,
  0x3ef116079a11fa23U, 0x839f0099f33434adU, 0x27f305fef8810bfeU, 0xdd624a1ec6f711b1U,
  0xa1f50f1015322cbU, 0xd6078cb67f2e23e3U, 0x7e10f2bbef8fa06U, 0x3b45efbe0ce9eafaU,
  0xba54eee632bcfdc6U, 0x810e58f7fe10428cU, 0xf3f1809fd0d7f0cU, 0x31080d04080b3518U,
  0xf223050d38090ab2U, 0x140017d90a19e62aU, 0xeed43df5de412509U, 0x81ddd913d3103816U,
  0x407U, 0x1938ffffff79U, 0xffffff3e000000e1U, 0x68200001a73U,
  0xfffffedc00000e57U, 0x47d0000084eU, 0xdc1fffffe8fU, 0x2054fffff843U,
  0xffffffa2000023f9U, 0xfffffc5dfffffdc7U, 0xfffffe6c000000f6U, 0xfffff80affffff07U,
  0x304a00000d82U, 0x1957fffffca6U, 0xf9ffffff8cU, 0xfffffea900000a17U,
  0x75fffff9c0U, 0x3e6fffffce4U, 0x65700001331U, 0x1aadfffffa0cU,
  0xfffffa9d0000009eU, 0x1c200001847U, 0xfffffd8afffffffeU, 0xfffff8d500001df9U,
  0xffffff9b00003372U, 0x28d4fffffd81U, 0x146fffff758U, 0x2ab600000a24U,
  0x30000000cb7U, 0xe62e0000019aU, 0xfffffb9f000003bfU, 0x503000014b0U,
  0x2a1fffffaacU, 0xfffffedf00001024U, 0x424000048f4U, 0x43cffffffdaU,
  0xffffff4800001cf1U, 0x453fffffef3U, 0x10fb000012baU, 0x4e8000002ddU,
  0xfffff4bb00000081U, 0x137800000cc4U, 0xfffffcb600001697U, 0x14bb00001198U,
  0x920000016bU, 0x18bffffffc6fU, 0x75e00000235U, 0x763fffffdcaU,
  0xa4b74a51bc4a4144U, 0x5b4bd2416c844948U, 0x4ab54c52ba3a4354U, 0xc0b4455c6ea2f94bU,
  0xab6bd9e04ba4a4aU, 0x597fc1af51645050U, 0xade59b4babb3b756U, 0xbf59ac81a94a4346U,
  0xb441c3a5456ab03cU, 0xabafa37fc7b0aabdU, 0x47a73f54e1bda3bcU, 0xc0559cb19dba514fU,
  0x81615e669c685a5bU, 0x686445577f855960U, 0x629f6367a260607fU, 0x98a3656e7f9ff660U,
  0xdb9ea04d819d6766U, 0x6fa1ad99637f6565U, 0x9ad28d6581909ea2U, 0xadce9188896a5f61U,
  0xa451a96d61d49b6eU, 0x9b9f92f7b2918e01U, 0xce81576360a28c9dU, 0xb16c819d8a996b68U,
  0xc9e91f2fd135282aU, 0x2831e12a31b42132U, 0x26dc262fdc232333U, 0xcde22c2732e6f62aU,
  0xed8db48d7d62f2fU, 0x29fed9d72837292eU, 0xd8e6c929e4d8da08U, 0xe5e5c7dbbf2e2a2cU,
  0xd620def226d0d128U, 0xdbdacaaadccac843U, 0xfcc02528d0d0becbU, 0xe632d3d2cbcf322eU,
  0x28696064aa596060U, 0x6768ba5da68168a9U, 0x5f9d63609f5658d8U, 0xa5965968c7a2b661U,
  0xbda0a68178a7585dU, 0x65baa19f65e06966U, 0x9e6a8f5da58ca2a0U, 0x9e7f97cb6f555b5bU,
  0x9861a05c617f9e4dU, 0x98a18d7aaaa79f81U, 0x7f345e6ce6a79ba4U, 0x9e649f9f8fa55d67U,
  0x2e817f7f817f7f7fU, 0x7f7f7f7f94937f81U, 0x7f817f7f817f7fbbU, 0x81817f7fa881937fU,
  0x7f818161dc817f7fU, 0x7f0781817fc87f7fU, 0x817f817f8f81817fU, 0x81c4814d7f7f7f7fU,
  0x817f81817fb0817fU, 0x8181819d818181faU, 0x9e3a7f7f7f818181U, 0x817f828181817f7fU,
  0x11142b3ac73f353bU, 0x343fb13ea58c31bbU, 0x35d3343dcd3230d4U, 0xafd33930d0d1c539U,
  0xe0c8d06daecb393bU, 0x3319c6c936e43135U, 0xcd33b333f1dfcdedU, 0xd6d5ba4f4236383aU,
  0xcc31bc1a34cfc630U, 0xd0ccbda6c5b8b76fU, 0xfb153733bac5b7b3U, 0xd240d8cbcec53833U,
  0x39fb252ade252b2aU, 0x1f32df27d2b02809U, 0x23d62427db2329a9U, 0xd6d22520e0e36123U,
  0x32d9ddc357db2128U, 0x1fbfd0dd29bc292cU, 0xddb4d928efd7d806U, 0xd54cca1401222627U,
  0xcf2ad7fd282ed51dU, 0xdad6bf2dd7d1d3b4U, 0x3b222b2df2d2cdd5U, 0xda2df1d3c5db232eU,
  0x4e023233cd373b38U, 0x2a3d4139ca9f2f12U, 0x31cf3238cd393890U, 0xadcb3529d0d17f2eU,
  0xb1cccf1717cb2e33U, 0x2b53c1d034983238U, 0xd39ccb39eeddcae8U, 0xc6e2b761fc363738U,
  0xc734c00b34d2c530U, 0xd3c9af8fc3b6b7f7U, 0xca2e3b3433bfb8b5U, 0xcb39f1c3bbcd3033U,
  0x24ff0c19e61a171aU, 0xe17da1cdadd1307U, 0x10ed131ceb1815ccU, 0xe0ee1713e9ef4114U,
  0x12e7ee1ee1ea1416U, 0xeece6ee19d41310U, 0xedd1e1140df6e90bU, 0xf3e0e133fe18181aU,
  0xeb14ecf117dfe713U, 0xf1eae6fee4dae13dU, 0x2151a14e9e0e4e0U, 0xea1e01ecf1e81612U,
  0x421ffffff5cU, 0xa8ebffffffabU, 0x279000005bdU, 0x20000003cU,
  0x15300000141U, 0xffffff9000002aeaU, 0xffffffc70000017aU, 0x538000001f7U,
  0x35c000012eaU, 0x63a400000107U, 0x23e00000496U, 0xffffffd8000051b8U,
  0xfffffc9a00001efeU, 0xffffff88000098b0U, 0x35f00001afbU, 0xda40000ed99U,
  0x26e0000044cU, 0xfffffffe0000689fU, 0x7321000025a4U, 0xffffffa4000059efU,
  0xffffffbf00000405U, 0x49c0000207fU, 0x5f660000603bU, 0xffffffdd0000008fU,
  0x68a8ffffff9eU, 0x38ad00008ba2U, 0x2080ffffffc3U, 0xaab3fffffefcU,
  0xdc00000393U, 0xfffffdd000000463U, 0x204afffffff5U, 0x2656fffff8e3U,
  0xc1b00000000eU, 0xd5ffffffd8U, 0x18e3000000cbU, 0x7ae5000003c1U,
  0x1fd500000213U, 0x63c000002986U, 0x2d3f00000340U, 0xbdc50000b25cU,
  0x448800002052U, 0xfffffb3c0000c791U, 0x310ffffd3e8U, 0xfffffc9a0000035aU,
  0x19c40000052dU, 0x45dc00004c35U, 0xa2250000a3cdU, 0x77dc00000b56U,
  0x9ff0a01061116b1U, 0x81f101f402eb0dfdU, 0x6e7f608ed03f6ffU, 0xfc180bfbf3f4fbceU,
  0xfefa09f80302040cU, 0x7ffe505f8ed1009U, 0xffe8f70e06f5efffU, 0x27fefb04020806edU,
  0x30702fef9031520U, 0xfffb22fbf6fdf701U, 0xfd0703ddfe9516faU, 0xf221fdfde4e1faffU,
  0x70019054804a703U, 0xdc2ff8190c131411U, 0xfdfff01111e8c609U, 0x507efac0cf30c06U,
  0xfcdaf408fdf6fee5U, 0xd4fde9a9ff0afc07U, 0xb020c0c07f10efdU, 0x1203f8ff0dfa206bU,
  0xe134e3fd280201faU, 0x38f406031f0b0ff2U, 0x40cf0fb02d70ee2U, 0xf4011503021d7f0cU,
  0xdb04ad7fd5a2e7f4U, 0xbea1a0afb2ae400U, 0xbfcaec0f349c4e4U, 0x26e04ffc19f2f945U,
  0x2d20005f5c04b30U, 0x240a0c1efc1203ceU, 0xfd1ef03efdb87601U, 0xf9ece3e6e7b9f5ebU,
  0x1804f303f20a6dc4U, 0x1ecdf5fbef1e0e14U, 0x2be8ec2326150f0aU, 0x2ebc24b2ed2af015U,
  0xf7d0b45ae4c7fed1U, 0x7c061ef10ed83600U, 0xfb320d18f4e714e7U, 0xf131ef212b1515d3U,
  0xd2fb35ee126fefdbU, 0xd7d0ec071605cef9U, 0xde34c9ceee0d34d1U, 0xaff5211112295feaU,
  0xea3807cc220f987fU, 0x2846adfa0f18a503U, 0xf5ede117f607f1c7U, 0x12a047e0eee72bffU,
  0xfc00ef0fc51822e0U, 0x152f0be3f531eaeaU, 0xcc03affbe0310ee9U, 0xe6b0980cfdfce663U,
  0xfb4c08f6e6f703c5U, 0xa200e4e21aecce23U, 0x4fec04ccf704eefcU, 0x400e0cede6fc652aU,
  0x7ff40400cc131b1eU, 0xae1245f438ebeef1U, 0xfed0a3110d209f4U, 0x40145040c3e14fcU,
  0x612d2f741e90e09U, 0xd201f6f807e06705U, 0xcbb210ffef30f6feU, 0xfeafd203f0d10fe2U,
  0x1204def604fd21ebU, 0x211270ff104f8e5U, 0x3fee1eadac02711U, 0xcdfeeffe08f9e8eaU,
  0x912f312eadf28dfU, 0xa5e3c1051a15fbf6U, 0x170607241cf300feU, 0x4fddc040a8120e9U,
  0xe11becedf1120e1eU, 0xf302f01bf6cff0eeU, 0xf72647ef2fe7cbf0U, 0xf523d5ddd51bf6c8U,
  0x1b0eb90f0401fe00U, 0x1916c01ed9eb0ecfU, 0x68da16d1cf193b1dU, 0x1820d9f1f52deef9U,
  0x2a4cdb1cf5fb1836U, 0xd507160ce12715f9U, 0xfd02da810015dd02U, 0x40101b29d1fd0ff8U,
  0x111d080e2de44600U, 0x10d4c7c600cb45f5U, 0x3ed7cfeef9c0f0ffU, 0x7fac815da7f02e4U,
  0x1808e705e0dffb17U, 0x140e07e6bd2df7dbU, 0xcf01db2b037d271eU, 0xcfe0ddf809090151U,
  0x3af7c51ef3ea2319U, 0xb0cdfcc11e010bcU, 0xd1f1221ccf47380eU, 0x81ed7d75126f8f4U,
  0xeef90aee1f0c150fU, 0x35e003ebfe0720ffU, 0x1ed8fdedfbfffffcU, 0x4f403101cecfb3bU,
  0xfa1d24fefa0a05e1U, 0x22f6922802122ff5U, 0x316eb1bf5ebe9fbU, 0xf3f4fffcf9ffe9eaU,
  0xeafa09fae80a0a02U, 0x1402fbf5fefdf901U, 0xfafb811ffaef09fbU, 0x3eb12230d08ef05U,
  0x1305d3ec0691fff2U, 0x7e52f2c5ec08f419U, 0x27ee0c27d0f56d24U, 0x4d6e9ec171a1ba2U,
  0x7e6edf8efd7c5e3U, 0x1001c7eaf1e90ac4U, 0xe808f21defd74204U, 0xd5fc34f123eeeec6U,
  0xda81ed07eef2f005U, 0x4af7f3f764dcfceeU, 0xe319fd2ae78d0b40U, 0x3c4c1a1d113b09beU,
  0x30c06ef100312f8U, 0x48f4f9e6fefa35f9U, 0xfd0f00f017e925f3U, 0x1073706f7f6f5ffU,
  0xcfa1703fe000807U, 0x5053bfbf9022be4U, 0x7ff3100bfdf2e60fU, 0xef40c01f003f4f3U,
  0xfcec030dec030203U, 0x380a0ef0ebf4faf6U, 0xe8fc2b1aebd70306U, 0x9ef0522b9fd04faU,
  0xffec0799d108e309U, 0xffe73601f81ffb01U, 0x12fbc974e91606fcU, 0xe7ff421e0ee60604U,
  0xee0810f40606fc1dU, 0xf5f23006bf2ff919U, 0xe935e429fe04d2efU, 0xdd03f40de9e9f959U,
  0x36e314f0070de1f8U, 0x2781eafffbfafa0eU, 0x2f51dc80d18f3f6U, 0xeccd22f1fb221b1aU,
  0x30a05060df0dfd8U, 0x7ff4172208f4fb07U, 0xfde4050802f5f809U, 0xf52646f6081109e4U,
  0xafcfff10d040c08U, 0x120b0004f7f3e909U, 0xdb03df04fb19000bU, 0xe90df80a1205e723U,
  0x580aef0a281f0327U, 0xdbf7f510f1050608U, 0xd0cfff00ef3e1fdU, 0xeef6def4fbf5010fU,
  0x197ff80bf4254a07U, 0xca3610f4f2caeaf6U, 0x26e500cff7f51607U, 0xdc0810bdbfc90a17U,
  0x79000a0710f0ef13U, 0x573d3db730bc45eU, 0xd303e40c1ccaa97dU, 0xaf0af12eeff4d1ecU,
  0xc3f7ec7f03ea0512U, 0xf1cdf041df80912U, 0x16070de214ebfef2U, 0xe8da33d50f26f7f1U,
  0xf1e2eae4190ae4d6U, 0x7ff3f5f1fed39ed3U, 0x202dc8b916f133ddU, 0x380f28aadcb9f591U,
  0xe10a19c9ed37520eU, 0xead62d112430f90bU, 0x30612f405c30fe2U, 0xedcc18f4f033f31eU,
  0xae5601e1eada2cdfU, 0xee8917e10c22bdf6U, 0xd3c3cdcdd7bc32f4U, 0xd038bdea2d22d245U,
  0xf170b2ead113752U, 0xe7e602f60dee56fcU, 0xdc27fe36b645f10eU, 0xdff4d1f219cfee81U,
  0x142501fc06f70ce2U, 0xed1dc9f50c0f272bU, 0x47031bdd1fe4f414U, 0xefe7fb0af80058f6U,
  0x50cf617ef05e7d7U, 0x18eaf4fb0eeedb0dU, 0x1bf0fccb191f27e7U, 0xfc3b96d5d826121eU,
  0xe8eee9c81b0cf508U, 0xf2e9f40909f42d09U, 0x13eb26ed08161b01U, 0xdb11efe60f6306ccU,
  0xec03adf4f9edfe0cU, 0x1df122347fe62f57U, 0xfd10ed2c0b4ec6eaU, 0xf108d6f1f8fbd919U,
  0x100e00ecf2ea26f0U, 0x32d4d3fd00e507e4U, 0x1607f30412fbe4fcU, 0x3201271cf3ee22ebU,
  0xbfa0cfb06070f0eU, 0x1ee0f04f4f405f3U, 0xdee02f40beef405U, 0xfcfff9020020e22aU,
  0xfc18f6810c0b0309U, 0xfd00e7e0d80503U, 0xfbf6fe0d07190efcU, 0xad10917ed090f0cU,
  0xcef03fa0acf01f9U, 0x15140912fe130918U, 0xf20c0405f90e0310U, 0xfa1df0f817143007U,
  0xd3f005f89d37bbdbU, 0xe81522eb081e0dfbU, 0xf2de370e032e0dfaU, 0xe3e814a1df051eb4U,
  0xf4d300a1d7b0cee0U, 0x25f11837fa7f11d3U, 0x422def2dcf1ecf0U, 0xe2d2d3be08dadd0aU,
  0x43f1f2f0d4ee96e2U, 0xff4bc133eab41512U, 0x25ddbdd928f400fbU, 0xc0e45209e6e596ceU,
  0xe4075932a7fc0e0dU, 0xcbeee20e050ddc13U, 0xf517f53b05f901f6U, 0x407dfa5f13122d3U,
  0x71109f71441f142U, 0x5fef53130fcd1e7U, 0x1cf108f1f181e50bU, 0xf80d10f52630dc34U,
  0x1be1030706e24c04U, 0xac9f407d50ef7e6U, 0xfc19f6790006caffU, 0x1efc165c03f20ffaU,
  0xfef9022f31e90e10U, 0x3df8f10cdff9e0ffU, 0x4f4f325ed0e11a4U, 0x17d8021704d408b8U,
  0xf7f54bedfa0f3a08U, 0xfcf8fdf0da11f83aU, 0x80cf6f6d0de8ef6U, 0xeaee20060d81f336U,
  0xfdbc38f416e414f0U, 0xd96afff704f005eaU, 0x5fc10c308100905U, 0x60fde92722fafe0aU,
  0xfaf0eb0416f10f14U, 0x35f111f9fe15f9eeU, 0xfffaa480a06cd05U, 0xea0a52ec1601ec23U,
  0xed07be070b09c0feU, 0xe4ee20f62c0e09e8U, 0xed12f91aefa4f1eeU, 0xffeb0604ec001eeeU,
  0xb2415ecf11becf0U, 0xec2118e40112210fU, 0x2dff7fc031e29f6U, 0x804fe2212ed1581U,
  0xff0ae7dee7f981eeU, 0xe4dd0f41e5c501cdU, 0xe90722ee44de4cf6U, 0xff2e0a07e6ddd3d9U,
  0x78ffc09f3f8fbeeU, 0x1c0ae4aaf1ff091aU, 0xf8e9f6d8e9fad709U, 0xfeec2cf0d61ce3d0U,
  0x16ace10a34ff26ffU, 0xb41f00f2e0e4eb19U, 0x10e0e1420d543501U, 0x12bfac1cded902fdU,
  0x23cc0b151bc70336U, 0xe4f81415ef44f8ecU, 0xb41fc6c101f2ff24U, 0x3c3523d21080581U,
  0xcc311a0a0c07e5beU, 0xbacddeeb152f15e5U, 0xff2018d6020502caU, 0x25eb0e26f7203613U,
  0x4cecf9c917230ad7U, 0xec0b23e3eb0e320eU, 0xfbeee930fb0c011bU, 0xf56e0904f00a180cU,
  0x4ee2bfa0d05fc1bU, 0xf2fceccc1730070aU, 0xe01508fff4d11908U, 0xfed921fc18dd12c4U,
  0xf11404eff10413e7U, 0xede715fce4020437U, 0xd13f5e1ffdf17efU, 0x4edeef817f6eeebU,
  0xe151df001076527U, 0x20912f7e507f7deU, 0xd40233ecd716e813U, 0xd8f42f81e5f11ea7U,
  0xf407d5cae7cf05e9U, 0x2ef06f30604ebeeU, 0xf20505f3f401a9f7U, 0xfdd90add02a1f7b4U,
  0x9eed3fbe91bf9ffU, 0x18070c19c1f4de1eU, 0xebfcf4e2fc1c1a09U, 0xe5ecf1fbf6ebef03U,
  0x2460d0afb06c6fcU, 0xd3dfbfdee382102U, 0xf1f40a7ff7dd0ef0U, 0x19fe05eaff1af413U,
  0xedf70d0c040adf7fU, 0x8e20828fc1409f9U, 0x469f09ea10ddf403U, 0x2dd11d27b9ecfeU,
  0xf93211f3f7040cccU, 0xf9f917d10b1355ebU, 0xf325c83405befbfaU, 0xec0b00ece90ff0f0U,
  0x2113ecf73519f644U, 0x1703fbfc150203f4U, 0xf8f82502f8fa0ef8U, 0x5194c030b33e708U,
  0xd0e092de8e6bcU, 0xd4a8fa49f6cebccdU, 0xbc245c2310b6e509U, 0x16b3c43ed143d0c2U,
  0x130708fb16fa35f7U, 0x250dd5d723e0db9bU, 0xdd51c8133b0fc18U, 0x5edebf3debae220U,
  0xce1811146df3ef04U, 0xd1a41edaa80f1001U, 0xe4ea39f8e8db05fbU, 0xe9c3a1dbe53ceb9dU,
  0xd0f1b2d7fe81c22U, 0xdffee4200f17cf02U, 0xff07d555e6102b06U, 0x4042edb0507151bU,
  0xf0aeef705121012U, 0xfc19c5dfec0f2cf0U, 0x41a131211061210U, 0x2ada0b1006251299U,
  0xf31eff1029f89cf6U, 0xf0fb15e0071fddd6U, 0xfae91a310428f4e1U, 0x51f115dafcfff608U,
  0x10081dd922242df4U, 0xf12d2ed1f0ff4aceU, 0xe51946f90701fbdbU, 0xf96244df1076cfddU,
  0xb1a11fd010a318aU, 0xd10e17bff6e401daU, 0x87f8edc1dd2dea0cU, 0xf3f6f7eadbfe7b00U,
  0xdb0df60dda324e50U, 0x22ba00f811040131U, 0xf8e22c14f91c2603U, 0x3a004138ecdf81f8U,
  0x45cc36e8e8b0fc0cU, 0x10eabc17f7c637U, 0x721dfd88ec2f336U, 0xfc02add20853d37U,
  0xcfe8dae803d0f522U, 0xedca81f919f10efdU, 0x3d140ad854a002ceU, 0xef1ee3247cfcdc2U,
  0x39f611cd34f4be38U, 0xbfe431f016e527deU, 0xc4424dfcc5711438U, 0x9b01801feefd43aU,
  0xf80021f5ad34c7c7U, 0xf2c4d256fc1c4c12U, 0xc7d4c1075e9cfd14U, 0xfe81f30a04ef11fcU,
  0xfe21f609071ee727U, 0xaef52caf0705d91dU, 0xe502ef000104fe01U, 0xd4eb06150d2621bbU,
  0xd5e8fcfd77c905bfU, 0x30f9c4e5a8fe0cd6U, 0xe60ad5d4e0b1e4f7U, 0x2ce809060fbba215U,
  0xd801c8f640e85007U, 0x37fa302ff0f9cbd8U, 0xf733150f39d4e8e1U, 0xe360e921cbd2e35bU,
  0x67f98ec35dbe508U, 0xc60ceae1f751d963U, 0xcee226aad9ec1802U, 0x1d0bd423f9fa73bcU,
  0x99e5110524353b4eU, 0x33100f33e8e23652U, 0x1bd2162ffa9cd41U, 0x1c13bb4009093c4aU,
  0xfd07a7f4dfd9ea3bU, 0x153adc320f19251dU, 0x14249ff066c3e0cdU, 0x16342233e83322fdU,
  0x33410f020dd225aU, 0xa8fedcc5e8dee3ccU, 0x4de41e36d1320e04U, 0x1135e3242f8e3a02U,
  0x6021220325f3f528U, 0x3706e7220cec08e4U, 0xfa29ac4af4f6a9faU, 0xa97f11031202c7dbU,
  0xeffae0cd185a2015U, 0xe3f80413ea0ff605U, 0xfd10f2c80c0e3227U, 0xa32fdacf8ba0b04U,
  0xf82f0bf71011201fU, 0xe8fc0c0509ffe5ecU, 0xe7f604f22612e9f8U, 0x4112413170c1e4cU,
  0x691f1f8000dc90fU, 0xf9c90917e7e20606U, 0x11f6ff0911fee12cU, 0x7ffb229312d435f8U,
  0xf1ec1239eb11e4fdU, 0xf4d9fffef1e80ef5U, 0xfefa080103f22befU, 0x4041ea9fb1200e9U,
  0xf145ae47221456fdU, 0x20e8e314130b1ae5U, 0xe7010e15f91206ecU, 0x21cf624f7c2021dU,
  0x1dc94aed0414ddebU, 0xb27f9dece00e5fbU, 0xe705d4e5eff7e434U, 0xdb0ae119fc107f09U,
  0xed312c1b216805eaU, 0xd424f2c41e1a09f7U, 0xed20e5dd27ebf8e8U, 0xf5f80d5e17e30781U,
  0x32e6a1b8ffc140dcU, 0xc71cfd1236d0a7c0U, 0xf00bcdde10ddda31U, 0xf2e0b6df17d9e3ebU,
  0xe21ef730b7ee985cU, 0xb8e903fbefc51cd7U, 0xebdfa6b4e713ea20U, 0x6e0063d03ee664dU,
  0xfcb31f641831fddbU, 0x4e04472ff6c8dd00U, 0xec392739e83511f2U, 0x260b23ed37c7f3bfU,
  0xb20ecb3020811209U, 0xe6c32e3995da02e8U, 0xe72207d5d7c943acU, 0xd033a518dedffa16U,
  0xbaf0e9ac221c0ee8U, 0x1e09e11628b9443aU, 0x3816e55b36bf0547U, 0xd4e513a6e4d7da16U,
  0xd510b4f64a9f3922U, 0xc9b6fc22121201f2U, 0xf2eaf21904f241f2U, 0x9ef0e8320c6e8e8U,
  0x156033ef07e6b7fcU, 0xf012ff09c7e7edeaU, 0xd40bd2e2ebf02f16U, 0xe3f0fc02efe4063dU,
  0xfaeff4132e00d72cU, 0xf328fbf2b4dbd9f8U, 0xea1bdd0520faf6U, 0x81d83e1f0a091d04U,
  0xfb04ebd1080efaU, 0x420106f7ff0a04f9U, 0x1f5fb0106f9f1f7U, 0xbfafcb10018f323U,
  0xfa08160406f815f4U, 0xf8fc16f2f4080df1U, 0xf101fe010010f4fbU, 0xfaf508f6ea0698U,
  0xfe0dfbfbfe090800U, 0xf6e401f8f5fc0a06U, 0x3f8100306080cf9U, 0xfd0fec0209fc7ffeU,
  0xfffff5f1000067b9U, 0xffffa395fffffff8U, 0x99b7ffffba2bU, 0xffff7b28ffffd400U,
  0x404bffffffc6U, 0x122bffff9545U, 0x590bfffff551U, 0x413e000057a6U,
  0xffffdef5ffffada7U, 0xffffe123000093b8U, 0xffffec72fffff1fdU, 0xffffdd8b00005a57U,
  0x427d00002cbdU, 0xe1baffffc507U, 0xffff7316fffff117U, 0x99f80000ce8bU,
  0xffffa2a5ffffa87eU, 0xfffffef9000016c1U, 0x45660000cfb6U, 0x830000330fU,
  0xbb0cf95f00fc33d2U, 0x7f13fe50f44bd4e6U, 0xe2cd031bdaeb051fU, 0x4402dc2819eecabeU,
  0xebb3fb6e630bd40cU, 0xfa9aec540df097efU, 0xfc0c33f5f8296f17U, 0x2a7f95f42123dff1U,
  0xf2c81218f8f79712U, 0xeb7e12d3020a21efU, 0xb4bfed05fd98c5eeU, 0xe2e5e6d112ff1f08U,
  0xce13521b012ffc3eU, 0x4fafd0616f24114U, 0xb70781ce56da2a0eU, 0xdf1ce1e36291210aU,
  0xebb325e6f11237f4U, 0x29347fe42c01f91aU, 0xfbd5a8cbc8cc15dfU, 0x175cae9a82eed9f5U,
  0xfbf4e4bad21fd481U, 0x161cdfe6ebb63805U, 0x2bd7ef1801546923U, 0x3b0c194100e4170aU,
  0x1430f517eae4fed3U, 0xe9260c00b7cefff2U, 0xe901bbda7ff92257U, 0xf619e1e9daf3fedfU,
  0x1f60632f3dc34ebU, 0x3603e705ec062900U, 0xebf110fefc1006f2U, 0x15001281f7e10efdU,
  0x99fff5eeebec05e4U, 0x30e8fcef05f7f5faU, 0x1101f60cfdeff929U, 0xd9e60e27182c0702U,
  0x3d2326082cf109fbU, 0x1f20eabdcf2e43fU, 0xfd35f7b6440be9e2U, 0x11f581ddd44e0f1aU,
  0x2cd226b71728f32bU, 0x1c1c9e20f6050501U, 0x290e84f7ea8103b2U, 0xc9cfcae92900bd16U,
  0x2fae224ed6fb0316U, 0xf420c6b0dd23dc7fU, 0x2e3510a8c7c5248bU, 0xea0d1327483bdd10U,
  0x702b6501d1d751e5U, 0xd2519aff62f4aaeU, 0xe9e40127e110f7eeU, 0xfc371e241bfff80dU,
  0x2e2ddad51ececb7fU, 0x1a3125f4e3ff07e2U, 0xed0cd819ded8e337U, 0xb912d02ee6f8edf8U,
  0x2ce6d0f6e2fc02ecU, 0xc21fedf8d0815e2eU, 0x9fb06e4dfe74ff9U, 0xed3a4d2bf11010a0U,
  0x7c98e1b1feed3ef5U, 0x26bc1dac1eb2321eU, 0x81c0caf321d1e1c0U, 0x4d6bc3bd2dff0b1aU,
  0xfa09dd09e8d79eeaU, 0x3070d0f04f41414U, 0x240506145adf1a06U, 0xe0f82edee80eda0dU,
  0xeae6ffd62cf1f864U, 0x420205b781552f02U, 0xf95e208adbd03efU, 0xf630231ad41bbc44U,
  0xdaad777fc004dU, 0x16234037e4271ce2U, 0x4815523fa3ed8f2U, 0xec10cfbce723ce7fU,
  0x2ec10cdfacd1fd3U, 0x16fefdf61426e8fbU, 0x1fed0f08d70c2205U, 0x17f7f6f6f3fc1ce4U,
  0x504fd15fd04810aU, 0xfaf60cfb1002f21bU, 0xbd8ff05f00ee7f9U, 0x19080d061a0f0bdeU,
  0x90f40af5d9dd15feU, 0xe1c2ffc00c8110f8U, 0xf4dbd41e021b35f1U, 0xef45611dc0c6f626U,
  0xd4efa9e61adbf4e3U, 0xddadd43ddbc30329U, 0xf87ff9331621fafaU, 0x34ff1d1224ec03eaU,
  0xfecd1726e133f9f6U, 0x381413e8fefff1feU, 0xf71de8fd1503e1e3U, 0xded3e481d722172aU,
  0x6dff6d6fba3dcdfU, 0x1e81b1830fa19e0U, 0xf52701a9ead507bbU, 0xc6f3eddb224d13f9U,
  0xf700ec03dc110e2dU, 0xd6f68126c1f62215U, 0xd0fb180af203e2f9U, 0xe71f09fc06050eU,
  0xe63dc330cf26ff12U, 0x12f4e2faf4fc24fbU, 0xf1e21dc712ca05U, 0x1efebf494b0a0eccU,
  0x18040512920bf5ccU, 0xe50b14303681c32eU, 0xf4e70bed0b020919U, 0xe3f8ffe1050807fcU,
  0x11fff9e7da1beb1aU, 0xc8eddf2d0ceaf83cU, 0x1f7f0df804b235feU, 0xe53e10ebf042f908U,
  0xda7545dcf2ed0b05U, 0x57f7c51eeeb8e77fU, 0x334a35edcfe7df07U, 0xf14a9ee0d0bbde04U,
  0xf906f99eb5111d73U, 0xdfd27b9e3e811cbdU, 0x46e7d416530201f6U, 0xdf86fbffee352803U,
  0xb82fd439012b19dfU, 0xfde905d0cfe2e18cU, 0x1513f77fed0127ffU, 0xbe9e3fcdddf19f9U,
  0xead7cb10dc082c23U, 0x59ce05d3fcf01624U, 0xa1701dbe4cc07d7U, 0xe9fd92da7d132d10U,
  0xe5eee0e62b12d3beU, 0x13292a380afe2581U, 0x2d2bfb34ebf90fe5U, 0xe2401d0d9812d5c3U,
  0x20093f3af22cef03U, 0x133911ed2a11e709U, 0x8810623c3f40df7U, 0x16eb30d21439ebU,
  0x89cf1bd5ca00e7U, 0xf60e38fae315bb44U, 0x71ecfc97f28e365U, 0xe5f49061562fbU,
  0x13cb221b0531ee07U, 0x1f81040e10d0fffaU, 0xd62f03d9d503bf31U, 0xe033c5a673df0136U,
  0xd4f01259fb1a4a09U, 0xffcf4f03f7ff1122U, 0x15810c0d0ae40deeU, 0xde0509e2e40edc20U,
  0x537e1b940e3052dU, 0xd2f30a3907002af7U, 0xe1f72c0afb051522U, 0xe4de1ca224f4fe81U,
  0x7afe7fdaede14d0fU, 0xeedadd1716a51f0cU, 0x2725ea0f31202be6U, 0xed3f604903dfdfafU,
  0xcbc1df70cef7f9fU, 0x81f0b4fcaf259d62U, 0xa6f01a0faee90af4U, 0xeb442c1e2384b0f9U,
  0xc3560ae1eb28b631U, 0xd0318d61b74fdd5U, 0xc023d0fe813ef8cfU, 0x3ad889bef4101689U,
  0xfbfd12ceff29e69eU, 0x815d937411b02dfU, 0xf5f319e31ff94dffU, 0x31f5dc2a000905fcU,
  0xfdf9160815c92908U, 0xcbecb5fff2d8f306U, 0x7f2ade285b22eb31U, 0xf31af5b5090a127fU,
  0x5dd5e89a03a9e6a7U, 0x18ecfb321d3dc124U, 0x22f44d15090f121dU, 0xb730d622f249cff4U,
  0xd8e30fe4db02d7d0U, 0x97fbe5f6e854d681U, 0xfaec16140f1ffafdU, 0x6d3f1c9cf350acbU,
  0x110ceb230bdede10U, 0x417ab16b0e2ceeeeU, 0x9587f28112f8e416U, 0x10fad440ed21d0d5U,
  0x600b58292ce71c45U, 0xb132d341bd2aaf9bU, 0xfd170ccdfb1419ccU, 0x50002fd8056939f2U,
  0x3adb31017f20ddf0U, 0x2df18036b06c50cU, 0xdfd2010bedd6110fU, 0x227fe3fb1b2a0d43U,
  0xf504b0f052d202bdU, 0xd3a84f66a3cc0744U, 0x1d17cd180900d517U, 0xefe9e6520a08e0d4U,
  0xfbca13ad00cf48eeU, 0x5d2ada7fbc140902U, 0xe62c0be520d223f5U, 0xc8ecb0f003f1f90fU,
  0x6d02e9f33317ea22U, 0x12b507070b317fc2U, 0x97c4a824e626ce4dU, 0xf3d41802ef0915f0U,
  0xee2f03eb01a9e2e2U, 0xbe2ae3c9071ae920U, 0xfb1408c8fac821c3U, 0x7d2b6ba1fe61f7fcU,
  0x42ffb8079d0ce9f1U, 0x20f8e4fbc2e57ff9U, 0xcb033ae10d2b1b0eU, 0x2ceb23e8ef088a15U,
  0xecb5a7d06b12e904U, 0x15edf3ebf7c02703U, 0xd3dc81db3f05f308U, 0xb9c7e94c07d9ea38U,
  0x2bd6dbcd1ad7fb97U, 0xb30cece1fd811fedU, 0x29c0f21bff02effaU, 0x1d4bea0510e8fc12U,
  0x2ff102e407eef3ebU, 0x811172735010e0aU, 0xd00a7f205b23da01U, 0xfe250cec05fb3ffbU,
  0xca15d6e1fffaf9d0U, 0x18e343db2be9f0eaU, 0xf8fb16e72ff9530bU, 0x23f30916f5090afcU,
  0x9fb100814cf3a05U, 0xc1efadff04daf8f7U, 0x7a21df067f21ea2cU, 0x13f205fb01fef5fbU,
  0x11f3fc0bf508f7f9U, 0x1d000103e00cd6edU, 0xeee5eeec0afae6f7U, 0xd0f7100081e102f3U,
  0x169e1f0737d586f8U, 0x31dba20429ee1100U, 0x3112d901b699eab2U, 0xd1d1bada4c02cf04U,
  0xac81e64f8a8d4344U, 0x6fceeef06f02110U, 0x2ee2405e7ff0102U, 0x391b0a21fcf6e702U,
  0xfee3e8f309fef8eaU, 0x2dfe190f81f40becU, 0xd6e712010708a4d2U, 0xcbb5e5f7e8accf27U,
  0xdb2dede8c6eef9c8U, 0x1f35f3001110ba22U, 0x7fe0c70ffdd8da1dU, 0x26ef07dbe6057fefU,
  0xcb1bddd1f910e6fdU, 0xfed0722fee40b2bU, 0xd9c311210acef5f2U, 0x833f24f5fc37010dU,
  0x5e2f80c1501018dU, 0x1c1a047f0f52022bU, 0xbdfe1c04f4d81318U, 0xdffce6f90af5f3f2U,
  0x2eb30f502faf81eU, 0xfd03e14fd93465f9U, 0x6af3997f11bf1136U, 0x831ae54d3d03d002U,
  0xf1c8fadececdfa73U, 0x303613eb83fe1329U, 0xd119f9317f02ff04U, 0x51735f616f8e931U,
  0x4dde0fafbe9fae2U, 0x200e05dfecd9dce1U, 0xa3eb2a3d1400f9e1U, 0xc20932e46ee31706U,
  0xe419accae802c411U, 0xdff8fb0df121ce33U, 0xe55cfff506e4d400U, 0xf6f47fc7d720ce2cU,
  0xd3cd713ff5ee9245U, 0x820d0e1af381faf8U, 0xdc103ffafadcef20U, 0x6dd812188a09d6f2U,
  0x660824e9f80f12f0U, 0x2a216f4dfed111dU, 0xd23944daf2f5ce08U, 0xd0ef59bfb330c0aU,
  0xbf06ef0d04fb110dU, 0xfd612ce6ff815be3U, 0xfdf9f2ff0300002dU, 0x1929127ffe05fb18U,
  0xe400180bfb14cddcU, 0xe70eff000239f405U, 0xf009f61dfa25d822U, 0x3f4fdf70ef27ffcU,
  0xcfd0b13ef062ae0U, 0xe0491308020f0316U, 0xed15f2e3e7fcfe0aU, 0x56f1fe1d1509ee03U,
  0xdcfff213fffb257fU, 0xf412de2ecf2fffe3U, 0xe7fbedf3f601f912U, 0xcd9f8041eb102cdU,
  0xe4ee0b081005fc13U, 0xebabf9320ff3ef36U, 0xf631ef81ef16a525U, 0xbaede47f1028d21cU,
  0xe81a46fa411335e9U, 0x5400e0cb2afa5fe7U, 0x1b0cfcfd08f305e5U, 0xfbe300f705fbf8fdU,
  0xf6fafbf9e181efU, 0xff04fdf5f901fd01U, 0x8fb06e21e080803U, 0xfa430941fa2943aeU,
  0x81d510dd1b38db3cU, 0xceb1119e5e917f1U, 0xfcf6e70525d5fa0aU, 0xd804fbe3d70bcff1U,
  0x3024eff416245b30U, 0x22d1c3f1dbf91bd7U, 0x2afd170608101d24U, 0x31ce5c2d8edc721U,
  0x7f0f153d2670cc60U, 0x30e1ffcbeaf47013U, 0xdc03ea071504fe00U, 0x23ecf91f18f20e1dU,
  0xbbcc05ef080c09fbU, 0x812bfd040128feecU, 0x7eed5dae2ffeccfU, 0xf7e915f2f8d60707U,
  0x110508f4eead8100U, 0xaf50506f80313feU, 0x20b1ffe39ece1e4U, 0x170318311d176781U,
  0x9ae1ed1d264cc042U, 0xc5f01513dbde1c02U, 0xd708d1e216e7c0e9U, 0xbd030aedfa1cd322U,
  0x41e1e37f5e8287fU, 0xfa02eb25f063e2feU, 0xf20ff9e704f7c600U, 0xef09f5ec03f3f6e4U,
  0xdce209dd1d151d0aU, 0xd0be9ee1cff1b81U, 0x23ebf0f233dbb1f7U, 0xde0910f706e8fe03U,
  0xdb16f8f7e516b41bU, 0xe217fd06ef1a020eU, 0x2f10b813d22a738U, 0x2ed81755fd22e148U,
  0x10314edfe25f816U, 0xbd0722f4e1cb12ceU, 0xf713fdf82cf7cd08U, 0xd053fc620a44fa35U,
  0xb018f90421231be3U, 0xec043ded7f301d22U, 0xe4fc1c17470bb309U, 0xeae6feff02d41017U,
  0xbd0719edb337dc0eU, 0xcbf6c4a1de8153d6U, 0x35df1f19492dadfeU, 0x3ce16655ff23fb1aU,
  0xed27c910edf1f0e2U, 0xd005000be5ef0804U, 0x2e1120eb1435d701U, 0x620c70e90f8efc8U,
  0xd25cb05b9127f12U, 0xdc1a0f01013fe917U, 0xc5d2d530cf4a87fU, 0x182d2d69f2e9badaU,
  0xb76c26fd05f7c4f9U, 0xcc16f105f752e7dbU, 0xf4ed32f50a1b1f0bU, 0x128444c621b9053dU,
  0xf0f30feffa0febfdU, 0x683fdfcefbe4e827U, 0x81f4bd1827da0c06U, 0x620435113a7421dU,
  0x453d1df1fc7f0302U, 0xe32bb7f8e3050f0aU, 0x7ed96dd07ec1390U, 0xf721d9f40ee736U,
  0x26012cdbf11d1608U, 0xc0d1007c9e7ef14U, 0xe916edef54f516eeU, 0xd117151bf7c3fd08U,
  0xefe30bfb12e6097fU, 0x17f033b6b108fd07U, 0x35f006d71f59d430U, 0x3330d21b05ffd01aU,
  0x19df81ff0bae01bcU, 0xd6fcf1f22d0ad6fcU, 0x14b93221db1ef1f3U, 0xf014fa179cffc53cU,
  0x1cfe81070ba849f6U, 0xca112221a225c0efU, 0x19fe49082f02fe5eU, 0xb914d8efb1033001U,
  0xc210f7e60ae44d23U, 0x1cfc1805fdfa14dcU, 0x1f051cf10cfb0d1bU, 0xefe2d92ce7e80917U,
  0x7f46e90c22fedbe8U, 0xf2dfcea130f1c01U, 0xcd23f3daefea15f7U, 0x21dcc8122071cfdU,
  0xd052010ca0eff2aU, 0xf9e80fe02004cff2U, 0xfe140cf301d2fd03U, 0xe30ac8d668160df8U,
  0xaf2f2f8131f19dcU, 0x19112009040381U, 0x320e150ae7ee11eaU, 0xd60d85ff74229edU,
  0xd21721e5e27f012cU, 0xfdf00a4212270428U, 0x3a1e36e018ca4c10U, 0xe27326e5072a16c5U,
  0xda25ecafd6dcd2f7U, 0x43fc7581f4f4f0e1U, 0xf8f70af4fbbf3de6U, 0xd2d45b9f21403dfU,
  0xd21746e605ed079eU, 0x1dee40e042afdfeU, 0x5e75c1990f0ebffU, 0x12ff2014f90e0e2eU,
  0xfde4e5ddf4fbf87fU, 0xe0edeecd0112f707U, 0xcf1f0addcbf7df5aU, 0xbaf50e81fdcd16e0U,
  0x3df2e5070211fef3U, 0xfcd21c3df51a0802U, 0xf501f410f2ff13ffU, 0x19c8e20a3416d57fU,
  0x38f2ce56fed307e9U, 0xb90afaed03382df4U, 0xfe0b05e30a250412U, 0xe09c837c3fafc2cU,
  0x31a0f12d0edd0e6U, 0xef321ff0e5dd0724U, 0xe4d0310e3b010906U, 0xf52a3917a67f2c16U,
  0x1b0b08c91f334503U, 0xce1236b5efe5f181U, 0x44324d2e0ade4cedU, 0x41e60ff033f932fbU,
  0xe1c9daee0e18e903U, 0x4fbd49dd05b9350eU, 0xbdfc1417b8f6e205U, 0xc6e1db81df8d09d6U,
  0x73c8f42d3f120fcfU, 0x1cf1ecdb3ea8541dU, 0x82cd3daeb1bf2e4U, 0x18103ebcdd2190dU,
  0xf9090cf8dff2c012U, 0x1700ef870f2ddeedU, 0xc802eafb10f51524U, 0x3540f000ea33ffdU,
  0xec4cd41bed4b0c06U, 0x84d3a7fae6f71af8U, 0xe8034ef2730f093eU, 0xcfaf4bef54e8811aU,
  0x1809d103eece18e8U, 0xe6fb250f06411a16U, 0x19011eeb1a2729f5U, 0x2f767037f07eef2U,
  0xef0c10f15b29a905U, 0xe7f110fbfad2ee07U, 0xce07da24ea17f7feU, 0x20e6d403e0f71cefU,
  0xca0c35f02e811626U, 0x5ec21da17efeff8U, 0xf5203a1e00ea02a9U, 0xd4d103e05bcd3314U,
  0xe6751efde0f68c1eU, 0x1deecba32ffe4adU, 0xd5cd0703eaec1b1cU, 0x3156c081b1b929a5U,
  0xfa050be41afd4803U, 0x28f10c1bfe0900f6U, 0x3fb1d1014c72f14U, 0xcaeeb307fcddf700U,
  0x7f24ee0e5e22ec2bU, 0xf9eece3920fdacfdU, 0x2d07ca0a08faffdaU, 0x26d503f0f11d0fb9U,
  0x432519280b0ceab8U, 0x81f8d0c312e90209U, 0x2b12fdfd1dc3031fU, 0x180e01ee061cd009U,
  0xd433ca0081d61011U, 0xfa19edfec60e5201U, 0xf20a31eb15320702U, 0x231501e93044391bU,
  0xf90df8fee105e609U, 0x30f3a60017ddf79fU, 0xf2dcffcef801e110U, 0x5c160dd181090edfU,
  0x1e180f27f21f45ccU, 0xd00556302b27d612U, 0xef03141b1bf0e206U, 0xeef5003efa001101U,
  0x813f034ff520e4ddU, 0xfa14d61de7e21a14U, 0x34f0810e0a2d04e0U, 0xd4ffe2fedfe2f00aU,
  0xe2f0fa0ef7e41a31U, 0xf714d81cdc220620U, 0xe958052cfa2a087fU, 0xf61b668c035a0cfeU,
  0x4dee3f0a513f0c05U, 0xc91720345c14a113U, 0xedce1ac400d9072aU, 0xf2e1d1f1b1a0881U,
  0xd007f434fe2b1c1bU, 0xe1fb0e20d8ef0fe0U, 0xe8fde8e209ece905U, 0x71afbdef9f7000eU,
  0x220e3356071ef5ffU, 0x7f9cefe146c6959cU, 0x4a57eb2a2ce61455U, 0xf90cdc31fff1eac8U,
  0xd7f711ebfc201aafU, 0xf8ecf923c20bf7c7U, 0xb10df1d9e3d6fd13U, 0x2f0bf12a140e3deU,
  0x35140632a3117f09U, 0xfa30d3d2073a1103U, 0x20fad70c5ff5f11fU, 0xcf1281bf17c2dfecU,
  0x2cf4f802f5241369U, 0x625f8f7fbeee3efU, 0x2ced52ba0af5f9eeU, 0xbd25ef481e34f4d7U,
  0xca46cbcb0ffffa0dU, 0xfe171c02e93af92fU, 0x5810ed4e412fad8U, 0xcfe2d0909172024U,
  0xee0bffcfba19421bU, 0x1fd623d7deada30dU, 0xc4a64419cd7ff21fU, 0xe531ddf34004101U,
  0x3b30080845b44d18U, 0x45f4ef16a5240115U, 0x2a9902f8f70216fcU, 0xea193632d649d962U,
  0xfa4ff1bb27f8facfU, 0xff157f37dc091f5cU, 0x4081660ec60ffe7fU, 0x9ab3dbc3e4bf1038U,
  0x9de80306c801190dU, 0x621f0b06021be6d4U, 0x2903e6a237dad111U, 0x1b88e15210cab6d7U,
  0x262c1cfffa393bfbU, 0xde4bac00091dec17U, 0x51a00f2f7e38100U, 0x3583ee710281600U,
  0x1415aaef3529ca02U, 0xfa1d39081b8129c6U, 0xe8e70912481b0e04U, 0xfa310a0cdc122eebU,
  0x1af32ae70615d6fcU, 0x3344260c52f65ed9U, 0x4038cb4806cd8beeU, 0xb19434b0defc1ee7U,
  0x102704dc282655edU, 0xe381ece52cab0618U, 0x9cb05ef03de0cf1U, 0x360fda7fe323e619U,
  0xd70707e6f8f0f7f1U, 0xda09efdc18f8eef1U, 0xebe60eedfff9fd24U, 0x17e0ff3406061037U,
  0xbad81e7f101b4413U, 0xd3bdede8ddf81b05U, 0x63ebe6f10906fafcU, 0x12f3dcfe23e9e209U,
  0xff24e3200d0ca83aU, 0x7f190407eec245aeU, 0xb13fde82434061eU, 0x24f5130cd95935e9U,
  0x5bd208ef3ee53502U, 0xc2e4f19eee2fe541U, 0xb4e0c581c7e4fe0cU, 0xda0c08e21b16d8d4U,
  0x5ef6a30d2f72631U, 0x1a37bb2ce51d2937U, 0xd6f50b133f197fe2U, 0xd4d45705150e49ceU,
  0xfc27d5f1ef0edfdeU, 0xc01015f8a8eaf2ebU, 0xf2aa1045e4c711c4U, 0x1d1106b42ad21ea5U,
  0x12b901e0fde7190eU, 0x23e5811cc30f11fcU, 0x3b63e0ded2df69e1U, 0xf1320abfee0007a9U,
  0xd1bf924fce0d926U, 0xbe59e781e1c8fde9U, 0xf307f6020f0a0f01U, 0x213cb121a03f4e8U,
  0x28ea20e5f4fbf712U, 0xe9eefdd6fcaf8120U, 0x17d3ec0f23fe150dU, 0x14fd5c1cd0c6fa11U,
  0xd9e6a6d31cf101cfU, 0x909ae029bdcae210U, 0xf8b0fb1d19cad513U, 0x14919e01c1f2beeU,
  0xe75ccee1ef1609e3U, 0xe0fdf1d0e5e78106U, 0xde6413d55cf41aebU, 0xe943067ee1ebab61U,
  0x96ee622a1420e409U, 0xfc3919f3a2811cf4U, 0x30dfcd4e30d53d6U, 0xbe776d02bf801b4U,
  0x2e13ffe13e1ce040U, 0x91cf008100d3eb00U, 0x2816f5142ff9ec0eU, 0x11eeff02ec091607U,
  0xfadcea53f41ad9e4U, 0x6010427d0fddb54U, 0x5824000de9da5ae7U, 0x23cf0c141b27ef1cU,
  0x39ee1115bc7f30ddU, 0x3ed0cc605024ee3U, 0xbc1ab9a9cc1ad47fU, 0x25fcefc6dbc040c7U,
  0x100700023119f207U, 0xbee16f3c43031fbU, 0x3b0bf5fc0a1d24e5U, 0xeccb1ce9f1cde7e1U,
  0xea265cef35001027U, 0x1af33681d5f6f226U, 0xf2f50bec67f4213eU, 0x23bfe7cbe57d30b4U,
  0x73e3fad468110208U, 0x6d31e30e1cc8020bU, 0xb4ff380c7b7435fdU, 0xe12d11d8483a8108U,
  0x21d2c642d8dae745U, 0x3fc9611c453228e2U, 0xfed302efccf524f9U, 0x2121c253ef8ffddU,
  0xe31a24e826d87fb4U, 0xc1f02f96e74a2656U, 0x2fe5cf81f6f6075dU, 0xb4d8939ece05f204U,
  0xcf0fd5e2250ff42cU, 0xdadfe01100f3032dU, 0x316c608eff5f71aU, 0xebeb05d6dcf17fd9U,
  0x85fb0edaf821ce3dU, 0xd7d12713c9ba2ddcU, 0xd208160017b1b3efU, 0x932d0bf90432bf1eU,
  0xf6f2f3aefcffc27fU, 0x52def9ef0dc83dccU, 0x2004e9052dfefb04U, 0xf7dfcdcbf63025f9U,
  0x3bcfee04f5fa17f5U, 0xed1c1532fc221f81U, 0x9bedef0d193cf636U, 0xfdfe050ae5fc17f3U,
  0xfbf7ddff0be1f207U, 0xfd0cedfaebfbf005U, 0x323bdafad816a1f7U, 0xbb56d2e1320ce0cU,
  0x21ddffee3d8f4b28U, 0x46a9813c39e5fcb5U, 0x134808f3f8141806U, 0x5fe82b2fb7ebfb1eU,
  0xddc68d3f08103caU, 0xcbedbd0758fce4c9U, 0xedc3d7dc31b11fd2U, 0xd62db428d013eff1U,
  0xd27dc9c1e60f0c41U, 0x4e06e4ed1ca4f5d0U, 0xc6b80031a939f2edU, 0x49ff0cb3ee018100U,
  0xf607a433140ebfd9U, 0xac5e81a17343df0U, 0x1bf1062081fef202U, 0x1401011dfc0fdf10U,
  0x1daede9e5f4fc5aU, 0x16efe4eac50ff60aU, 0x531604d9ae1f0f15U, 0xf3c5f6fc1701ffffU,
  0x20f92be4d0350a0eU, 0xf045df8120eafe0cU, 0xfc23504314d72a47U, 0x27ec15daf9f817f8U,
  0x3fd329c51b25ff14U, 0x3f80ce614c881ceU, 0x3002f9e106fe0201U, 0xfcf6fff229f0fdf9U,
  0xff6e292321325affU, 0x98b3f38f2708cbf3U, 0x4ad2ef5cfbf8ca0bU, 0x2de62ff437812716U,
  0x8826d60dd94cc9dcU, 0xddedb0d06e481U, 0x28e301c9f4a90bf4U, 0xfeecec0ffcb6f6U,
  0xff00100ee3240214U, 0x210b05db16f708f7U, 0x14cff6f5f9ede70eU, 0xed3a2be2e41127f2U,
  0x225fdb2ed280200U, 0xa90ecf28dad1d50cU, 0xf77f41d211ab60f0U, 0x18f931be462d35b2U,
  0xd92f1e3f5d74afbU, 0x27c708187f100125U, 0x1c4a0af159f0b4f3U, 0xf6240cc202affca2U,
  0x1c1fe538f8f9bb26U, 0x7f190a1405c53abdU, 0x8ffecfd2f23f914U, 0x1af50af6f33139f3U,
  0x33ee040020f732edU, 0xe71fee0d050b9a12U, 0x3dfcfbf0eedb13d9U, 0xf80b00e80423fbfcU,
  0x2e1d1517df101917U, 0x7fe6dc1324e004f2U, 0xbe4237f609ed0b18U, 0x430b23e5f07ffe23U,
  0xf62205fbfc04f3e3U, 0xef1e05fa0945f922U, 0xe1060df7f709fc10U, 0xfbcdbf681cbfcefU,
  0xbceef4dffa22df3bU, 0xff1df2eb361e154aU, 0x142b30bef9160e0eU, 0xeb93d311740f220U,
  0xdc4a309b9cc2e73fU, 0x81275e9b06152515U, 0x340e1627fa120ef4U, 0xeda4d9e6ee0dea0cU,
  0x14bfe91724111802U, 0x3c40f3787811023dU, 0x7fe82fc544c60e8fU, 0x1b1ddd11fe14fa18U,
  0x1517feeb44050dd9U, 0xbd0222fb12e6f906U, 0xdedfa1c1932ee0fU, 0x3f954f48fececf1U,
  0x14071a11e5f71f40U, 0xebe7e9f608ee7fU, 0xcdde08da11fff610U, 0x150911130ad5e116U,
  0xe2030816782dee1bU, 0xff02f4c313bdc9d4U, 0xf817eed40b080581U, 0x1fa4203faeb040eU,
  0x5bdf607f0f0f4e2U, 0xfffe4601f705d51dU, 0x10e119bbf228081cU, 0xfe09ea1e4c0d26ecU,
  0x26b7201bf97f07c6U, 0x1c18dff25d139117U, 0x7fe6e02ee4eb31d4U, 0xbd1dccc80742e51cU,
  0x261605eafb141aeaU, 0x76b4fbe40bc31f23U, 0x1e26021fc7eb0c17U, 0x9f8ef0863e80608U,
  0xc828ea3f44d00fe5U, 0x10d10bfface6097fU, 0xff46b1db9ee439U, 0xc10e06edd1fb0810U,
  0xf314ddefde10211dU, 0x2ce256eb5be20408U, 0xaf94818410d81f3U, 0x8f00e1811cbf4e8U,
  0xe10f60e692ecbdd0U, 0xd9e0d9a3c511815cU, 0xee7866f7edcf48bcU, 0xd97a260c913bb510U,
  0x2a07a7150f0c17d4U, 0xe5fde8fe241515fdU, 0xf3f01d05a608f232U, 0x34fef7f6052807e9U,
  0xa19fdfae900ff81U, 0xe115e04847f5fcebU, 0xdd091bf1d3f407f3U, 0xf636bcf87b0d240cU,
  0x1603cde620cadb30U, 0x5462ddef8f90a81U, 0x16339f1bdfd2ff33U, 0x52cebd60e12e348U,
  0xd3ed4e8129ecf8e8U, 0x4718e80d181afdfcU, 0x4050d06f6010cfcU, 0x1bee10e807f81ae2U,
  0xced00453f82e097fU, 0xf3d2a37ccaf22f17U, 0xd8e4e1e20219fa31U, 0x2ceffe05e92122efU,
  0x20ef2f601f805deU, 0xf7ef0ffc1e0438f2U, 0x27e9e51b0a0c0de8U, 0xe3f90e0913e22512U,
  0xd1fdcc00fbe5ff17U, 0x6f24cf107f23ec38U, 0x34e2dfd57f1c12caU, 0x130a35f056ce0efcU,
  0xe3f1101014e12511U, 0x17dff4a8f8020b11U, 0xd6222d7db215e4f8U, 0xfc01f819ee31fe08U,
  0xfefb4c09cbe1053eU, 0x131c320c09fb1420U, 0xfed0fdfc0de5db7fU, 0x2d7f8cbedfb170cU,
  0xd4f01615f6097f77U, 0x88f7f4132347e839U, 0xd18b0800b5eb230fU, 0x29ffc304f7e6a2eeU,
  0xc3ff1ad50c11bf0fU, 0x2aa3f13125e5f0deU, 0x18bbff3df217dd13U, 0xe20f10c0462e1abfU,
  0xfaa1d67f0516204eU, 0x2be763d3331ebedU, 0x16f536ecdcec5b0dU, 0xa3f4e4dfd9ffc620U,
  0x2f90c1ae0d9fcecU, 0xe30a21211cc9d3feU, 0x812df3fdea34dd13U, 0xfaa3f64730eca7e1U,
  0xf40f43f3fd2c4f16U, 0x2b7f97ed0c13f9edU, 0x5c91615fa00ba06U, 0xc86925dffd001ce5U,
  0x25c9cbd621f003a4U, 0xbc08f8d5138125f6U, 0xbc6f70f0af900ffU, 0x243ffe0514edfd09U,
  0x2cf801010eeae5efU, 0xef0a27acfbbce9ddU, 0xb425f825ee3d102dU, 0xfd18fdf61d08f6ddU,
  0xfcf1f981f5ec142eU, 0x1bdf00fce8f906ecU, 0xd3d8da8117201333U, 0xa3c0d7f8eb19d949U,
  0xc9e31ad7a0ed1911U, 0xdf131d3cdaf5b3f5U, 0x37e70aa0e5f8e940U, 0x3be1c72efefef2d7U,
  0xdcd4c53ede81fac2U, 0x26d7b304102b1a47U, 0x1ede70d2b8cf1b0U, 0x2feaf1d310e10bd3U,
  0xe60b1927e415c8d5U, 0xd91615bff6fbf8ffU, 0xd0e31716e507f3fcU, 0x3d16532f0bff313fU,
  0x8c0bf7ee7ffe19f0U, 0xef4bdc6b0a08f63cU, 0xdafbe90d332bcbeeU, 0xd135affbad10f1f6U,
  0xf4df2db9f57f1eU, 0xe612ff04053a231cU, 0xc111e08e87fc9f3U, 0xa31ce1b2af715fcU,
  0xccff9bf3fad516c4U, 0xfcf842220310f457U, 0xd7dc10045c1c10fbU, 0x11460ef5df20fbe4U,
  0xe41cf20d0ee63ee3U, 0x10a10810fe339b9U, 0x17fcedfec30b0723U, 0xb0f004ec42fbc40eU,
  0xf3fcf0d8f505e67fU, 0x3fd0ac0fcdd1fdeU, 0x2211f8fd1907ec0cU, 0xded2816f41426fdU,
  0x5040710020813f1U, 0xfe81ec11dcd4edd9U, 0xd21822f6d620e341U, 0x92fcdcb6ffefa3fU,
  0x3fb344bf31141f2U, 0xf6b83b15e530f706U, 0xf904f5b400f20081U, 0x4e03f7f200c9eeeeU,
  0x7f8df0314382307U, 0xf2071d1aeb11f22bU, 0xfe18de0ce90d1208U, 0xd9d0eaf80e465521U,
  0xb322462320f40f2aU, 0x81e42415d8eafaf0U, 0x9b704f109f8ecdcU, 0xb12d2e3be21bcf30U,
  0xfda1cdf1172b3081U, 0x7cb38149e2280615U, 0xb4f202f900d9f1f7U, 0xfb14e3bb12c300f5U,
  0xebe4c545c306ed0fU, 0xea110f3eebfd0e7fU, 0xedfbef34ef41f2fdU, 0xe81001e7fbfef70bU,
  0xfafdfeed02f5fee1U, 0xdcf606f915100a00U, 0xe1c4ed23f037bf3dU, 0xe623cb0c4008125U,
  0xc1eaa26e471b3a09U, 0x313d68f1d82507dcU, 0x3ff7f78728154bf7U, 0xdbadd8e5ea5cf90fU,
  0xff813c261110dc23U, 0xb0d635c5c2e027aeU, 0xf202b3bc4d9b8f2U, 0x3703bfcadb02fe5dU,
  0xf2f8e9281cabdaebU, 0xf7cf39ecfb0d1206U, 0xe7247f18112bed73U, 0x141bf3f50df351d1U,
  0xdefed6c4f105130fU, 0x25f3f00b43d20aedU, 0xd8fbaae1082a0d02U, 0x6ff8f404121c0bfbU,
  0x27f08d412fe2356U, 0xee6e6d924f20ed6U, 0x2081d5018fec0d14U, 0xfb0a2adcdf1e21f0U,
  0xb763eb0e04490156U, 0xb739f4ec1df5e90bU, 0x5e4b730c4beb671fU, 0xcf00f7cfc1e7c162U,
  0x311ceac2e18135abU, 0x39f7d41af04bea10U, 0x52de603fc22e6323U, 0x82fed13f3280ce8U,
  0xe1c3ea1855c9afddU, 0xfc63dbe8e10620f4U, 0xd017dad3101be8daU, 0x4f40e2ee3edd226U,
  0xb86fc3812ee219cfU, 0xb40f1a74423f0df5U, 0xf543818c3aa59c00U, 0xc0593e12eb29e111U,
  0xe2c1f995f222d2c4U, 0xdced4bee153ee83aU, 0xd91104260531f61aU, 0x8104031f03233121U,
  0xee0516de01e50aU, 0x101d52106f70eceU, 0xf5f71ce319f2efd4U, 0x1d61bbf31f1d02aU,
  0xeac2d4ef4a1622fcU, 0x3a29f60cd99506ebU, 0xaeb581ff24f0e516U, 0xf2bee162c3bdf719U,
  0x70bfadcf0f260fcU, 0xc60111b5ee24ae40U, 0x20dae455fb01bfd4U, 0x2fd21ff1eede9c7U,
  0x7f2838e4933112b6U, 0xb7ff1229f4271345U, 0xe6b3568141d3d8f5U, 0x1c17e61344ffe6c6U,
  0xe63bd7eb0b2b080fU, 0xd726ff3ddf23d8e9U, 0x11bff0de709bd76U, 0x81240b3ee69f0919U,
  0x1032f4e6f731f004U, 0x18eb1e44e7effb19U, 0x4afdcf3b27ed01fdU, 0xf6bfe81dd50a0306U,
  0x2a1cd213fbfda31dU, 0xc2e5e07f25f3e4fcU, 0x2ee22f5f9160cf6U, 0x28e6f049f1da2f18U,
  0x4df405b615030ec5U, 0xedd70881e4193706U, 0x9f8fa0702fff5edU, 0x3823fbf6fcf00f2eU,
  0xc08d701deff0de4U, 0xcc44d64b20249303U, 0x34dbf1f51a36f902U, 0xee0beddae315fef4U,
  0x4f11f0dc13f2fd08U, 0x7fa7e62906c4db07U, 0xea0e01fefc25e807U, 0xd01781e3fef1cc22U,
  0xe271d03fd4fdd1dU, 0xf2aaffcede02f106U, 0x2401f8ebdf170425U, 0xd074dc20103a07f7U,
  0xcbbdcb91121ac90eU, 0xae43b1ff8e462df4U, 0x10b0f86cedc7fdfU, 0xe45ad8a9ec4b3f09U,
  0x15f501513cc1ecd6U, 0xe848fa2dd25565ecU, 0xb86ed6e8fbe7fd17U, 0xf2d5da58e2cb8118U,
  0xda4a43af363df105U, 0xdcc2c210a193b7fU, 0xcd00f1f102231829U, 0x11d40825f3f4f41fU,
  0x25f2f0000f0722e7U, 0xdb0e2005f60cecf1U, 0xbb280a50ecf0b6f5U, 0xbd047f39052a2001U,
  0x6327fa01fcc94f12U, 0xf0f1e213113842bfU, 0x2fda6fda0fd31bc4U, 0xe508efbdd821f2beU,
  0x7fddf1a0e9d7dac0U, 0xfe29e0fa15f7f917U, 0xe8b2f81a07bafcd9U, 0xfbff0305e00515ffU,
  0x39e104ab320f0581U, 0x70da0fc02e05e813U, 0xf0ef009191de10bU, 0xfb05f3e3f9100512U,
  0xe103f818e0fc0a07U, 0xf6e3f2f2f823ede3U, 0xc60834fa8126c8d6U, 0x2df8f30cc60720fdU,
  0xf7e8e1e7d3120623U, 0xf6f3d7ed1615eb08U, 0xec1012dfe4e9410aU, 0x14162629edce8ef9U,
  0xf6be19a7e138f513U, 0xf70f18e91e074600U, 0x121622fb008127ebU, 0x370107e005fc62efU,
  0xd215164d2c2ace18U, 0x3cff1d2a14e92012U, 0xadf227f4f405f608U, 0x810f08ff1d4908e7U,
  0xc229f731ef11b6a4U, 0x970e17cddd28e651U, 0x811f14d6c40b04f6U, 0x1e13113bef0fd40cU,
  0x4912e721e8d7d725U, 0x7f61b072cf516ebU, 0xe7bd20252ecc012aU, 0xfbefeff306000e0fU,
  0x61420e3d47fe413U, 0x40ef5eb0c0a13f4U, 0xc309ff8141e34519U, 0xe4bf285ae0cfbec6U,
  0x1750cf170dea1a0cU, 0x6b30ab025731a4aaU, 0x10115e91b30d682cU, 0xe1e4ec0de081f50cU,
  0x27e81afefce201f8U, 0xf3fd650edf21ff4eU, 0x30ced0d02f4f6e6U, 0x3f4d1080be9f824U,
  0x87f1c0b454aea1bU, 0x9decfd71adc45bdU, 0xddfc344ca70006e5U, 0xfffae0e814daf1f6U,
  0xfa41dde308f41a18U, 0xda251cf4442cf71cU, 0xd91933bef8fa0f06U, 0xe4ed21338116e212U,
  0xd01503e972f2eed4U, 0x1e12d909054a6fd6U, 0x2d649b02bfc9a79U, 0x6f0fa1facecbbd1eU,
  0xb2ad30ff15f21a2dU, 0xd3609cc6edb5eb81U, 0xebf542d85922b809U, 0x35e5e120410c1730U,
  0x2105636c8803c50bU, 0xfb163b16e9e6cb04U, 0xd7e0b981fbeed941U, 0x12be0fccf925ec1cU,
  0xdf0ac6e120341a81U, 0x1a25ccec3043e636U, 0xdf0f3104f703092eU, 0xe9b21396da27f6d6U,
  0xdbf342ee19201407U, 0xd1f2ee0b05b0f5ecU, 0xecbafae3081227f6U, 0xed107f1ff633f43aU,
  0x4feebde02e53df7U, 0xe91eb0d9ffe81a1dU, 0xe6fc2704ac2cfac7U, 0x8114beece31e51e7U,
  0xfec33d02785712d3U, 0xf09542a3732cfbeU, 0x3615c5c7f8d01decU, 0xe61919fecaff137fU,
  0x4ef7f681cf4801eaU, 0x2bf0f110050edeU, 0xf5f2ec0b2f0111f9U, 0xe8f7d4fc02fffb24U,
  0xa08f20f0305dafcU, 0xe711fd7ff2f818ebU, 0x161712092301fcfbU, 0xf0080400e40026f8U,
  0x20e3fc08ef0423eeU, 0x6b0512cf2011edbfU, 0x9a2f17814cd6eff4U, 0x3e17f51aff7c99e3U,
  0xfe0f547f500d54aU, 0x2adba61ae3f1ff63U, 0xc02adffa1616cccaU, 0xafbdee4237f1608U,
  0x1312f701fcedfbffU, 0x300bd7e10afe1521U, 0x4bac1204fbe50afdU, 0xd5251a40ee0bca4fU,
  0xc2082a28070e13feU, 0xf91331fb19cb7f12U, 0xf2111df1190ceccbU, 0x15ec34f800d707c9U,
  0xe4041b04e53401f2U, 0x14209071dff20f9U, 0x292ac9f913aadf7fU, 0x84c24addbf0f6c3U,
  0xfc3496dde3c1f054U, 0x619190b23f3eae8U, 0xe7017ffc4b1ffef5U, 0x2c0600fdf1f6180aU,
  0xfd10eb01fbfff5ecU, 0x16d649d21bd8fdf8U, 0xcdc108e84fe3f208U, 0x3f806150ee91dU,
  0x1007da3019b80dbdU, 0xdcc7ebf11f0303f6U, 0xfef81d509fc0ad2U, 0xdf1bf281d8f99770U,
  0x331e0bfef1c027d6U, 0x30f40b0bf719eae5U, 0x15e715efe71f0afeU, 0xf9e6edfcfafa29feU,
  0x4c230e18031e1181U, 0xdeb6d6e91303faefU, 0xb31bed09bdf608e8U, 0xf140eab533b6a2f6U,
  0xc61de7eb0cf1b9f4U, 0x80701efedc0fdf6U, 0xfecaa6ef550f1b08U, 0xd2e511ea0a330381U,
  0xe3074222071cc7U, 0x14022a2d1f1213cdU, 0x84308254ddffa00U, 0xea38f9e0f2f4de08U,
  0xb0f7242b30bafb2fU, 0x2200310d032141c7U, 0xea81fc15fd4fd50cU, 0x3d112fceed40910U,
  0x10432305e5f6ddefU, 0x6fff69ed83ae309U, 0xd018eb06ffe9e522U, 0x17c44040e8148e6U,
  0x354c1cf13e3c1423U, 0x7fe3de3ef0f415d0U, 0x1f01e62fd7e608f5U, 0x7f7c6053edbd1d1U,
  0x37140ef70d26061bU, 0xe831fb0bf0147809U, 0xe7345200d2091aebU, 0xd71f00f456551025U,
  0xc1d4f09c6fb4413U, 0x7f5b0bb17b48f5e7U, 0xe80dee81e2efee46U, 0xe14faedf6d50eebU,
  0x7080e0ff4e6f8e8U, 0xce31403f036f4fbU, 0xcedef616fb111c1dU, 0xe65ce222d9ed0c45U,
  0x190a1acd1e7fceeaU, 0x231ba602a425eef0U, 0xf00fda3cde12790eU, 0xd316ffddf73b0023U,
  0xf3fb3bff1bfa4b7fU, 0x340a1400fd6de305U, 0xef0ae8e6395844e2U, 0xe121e8e61700fcf1U,
  0xc2dfd9d709140f3fU, 0x1d7fff24ee48e5daU, 0xfbc71340183d2f21U, 0x17e9392ac71efa1bU,
  0x16e7f0eb0e13160fU, 0xfa38f100e60f05d5U, 0xf9c051d01e0e20e4U, 0x601f1c08e7004001U,
  0x4d05b097ff8ebe9U, 0x1b2415d14624b2f7U, 0xdfeb2b2207d0eaf4U, 0x1d2500005036U,
  0xfffffa65ffffe649U, 0xffffffe40000236cU, 0xfffffd80ffffff00U, 0x1d2700001dc1U,
  0xa23000017fbU, 0xdf300001131U, 0x5d0500001433U, 0x23d000003227U,
  0xffffeebe00002152U, 0x11db000042bfU, 0x56f6000008d5U, 0x1f74ffffc581U,
  0x10ad00001fbbU, 0x38dd000024b3U, 0x30ac00001032U, 0x63e00003727U,
  0x6e960000285bU, 0x2705900000fe7U, 0x9240000015a0U, 0xc7dc00002ff6U,
  0xffffe6c700001c86U, 0x2bd10000123bU, 0x196c000028a9U, 0xa1700002533U,
  0x2014000023dfU, 0x2cb00003a43U, 0x20d4000019f9U, 0x171c0000166fU,
  0x1f2c0000241aU, 0xffffff15000000f9U, 0x315d00002672U, 0xfffffd5c000033f1U,
  0x3bc6000018fdU, 0x212400005d73U, 0x6eb00001107U, 0x1c32000063e5U,
  0x291100003ac4U, 0x194afffffb66U, 0x565300001d1cU, 0xfffff40a0000279eU,
  0x3b5d00000c05U, 0x46d0000596fU, 0x3b9d00005f6fU, 0x2427000020b3U,
  0x1647ffffe9eeU, 0x17e80001a454U, 0xfffffc740000043eU, 0x482a0000235bU,
  0xfffff79e00000bccU, 0xb7a00001ec8U, 0x2e720000004fU, 0x1a890000280fU,
  0xfffffccefffff8e5U, 0x6ddfffff07eU, 0x1d37ffffe09aU, 0x37d1000019baU,
  0x1e3f000026b7U, 0x1458000036e5U, 0x12f610000167bU, 0x2655ffffe7e5U,
  0x2b5100002f1aU, 0x32c7000072beU, 0x175800006c4dU, 0x44bf00002769U,
  0x3918fffff6c8U, 0x246dffffebf8U, 0xfffff5f700001513U, 0xfffffc87ffffe7ceU,
  0x12defffff815U, 0x1075000058c8U, 0x14b1100001d8cU, 0x279400001429U,
  0x69c000018ecU, 0x36b5ffffd39cU, 0x384f00003249U, 0x949900001373U,
  0x76e400001c3fU, 0x6f8000038a2U, 0x43e50000128eU, 0x18e10000073bU,
  0x12b00000887U, 0x36f400002fefU, 0x1d83000031eaU, 0xb9f0000155cU,
  0xade00001a4aU, 0x1db000024daU, 0x65f000009eaU, 0x2d4500005582U,
  0x3c6100001c05U, 0x4e2400003af2U, 0x21be00000fceU, 0xce0000103fU,
  0x7414ffffed73U, 0xffbfffffe70U, 0x1ed4fffff786U, 0xfffffcea00002559U,
  0xbae000024ffU, 0x2c0800001471U, 0x11319ffffef90U, 0x21f800006281U,
  0xfffffa4600001463U, 0xa0000444dU, 0x177400001e2dU, 0xc48ffffefd7U,
  0x1570000032feU, 0x2d5e000007b5U, 0x2f0500005130U, 0xfffff9db000024feU,
  0xfffff39d00001596U, 0x4bc700001854U, 0x1fd40000240fU, 0x3f6500005abbU,
  0x52db0000013cU, 0x1579fffffa27U, 0x1065000014c3U, 0x34c400002059U,
  0x44f000032edU, 0x571a000025dfU, 0x40649f800006617U, 0x1b13f111d808f0efU,
  0x6dd10040ff8e6e9U, 0xf3d610e618fbe9U, 0x6b1507f0e8fcdfebU, 0xfc040b0af7efd8edU,
  0xf3def002e9231dfdU, 0x25f805e4c41819d7U, 0xe0ffc42809681eU, 0x8f3fb38f1db1c0eU,
  0xee1e33ef0527f8faU, 0x7da26331332f903U, 0xbff061903caf10cU, 0xf90de729f57ff3d1U,
  0x3907f215f50fc708U, 0xf8fc200b14e00c03U, 0x1a14ff12fd0621efU, 0xc1fddac03cf4050eU,
  0x1dd13ffffd8f911U, 0x17ffff26fafad800U, 0x1ceaf907fe0307d9U, 0xef90002422410ecU,
  0xfef5e9030b07e216U, 0xba5ed01d71efdf5U, 0xafe6fa1b001a0b09U, 0x13ebe307def51ef9U,
  0xe2ebd1e0183df50aU, 0x6fb08e802fdf9fbU, 0xf61024082c1cf8dbU, 0xfe50bfeed0aff1dU,
  0x608127fe3000506U, 0x81c8ecd200510a1cU, 0x87248bfdfceee281U, 0x8a0b0769e71310d7U,
  0xd2fc8f0e4e5e697U, 0xfd04b60ed581a145U, 0x19b28b27bef27fe4U, 0x297fd0fb5e817f7fU,
  0xe89d2f07d067097fU, 0x10dfef381cc92f4U, 0xce7814adf7f7f7fU, 0x9f381237feca31dU,
  0x9611e881d91be6e8U, 0x62a163d7ffb69d8U, 0xd87f00d57fec38b7U, 0xd26ce77f1516bc0fU,
  0xe7fede9011f7f00U, 0x7f1f470dec3fcc92U, 0xe820e456e4149207U, 0xfb0836f12fd20105U,
  0xfd0edde87f041204U, 0xe51d021b037ff4e1U, 0x6e2eff8e41d0ba3U, 0xc96e225ded40ae2U,
  0x548eda04e7e26a26U, 0x7f15b581e9000f01U, 0xebd0e19fc61f7f12U, 0x95075d03ebdeed03U,
  0x1fe317bf55e7f83U, 0x1e7f81f9d5d6f611U, 0x190c0bff35f8fbfdU, 0xedfdd205f9ee7f09U,
  0xfef302def00001f7U, 0xedf201060a0b0315U, 0xe2f3032206eaedfcU, 0xf60dfbe4080be401U,
  0x2312f7eefe05ea20U, 0x541125fa05e6f80bU, 0xe908f8fef8c8fffeU, 0xf7f80afee722e5e4U,
  0x7feedfe3dea051eU, 0xf7e903e4e92bf72bU, 0xf9cc0be3dd0cfe1cU, 0xbbfffb07061f0ef6U,
  0xaff2afaf10df608U, 0xdef631ff1b08fee6U, 0xfe05161002070207U, 0xf93613f71ac842f6U,
  0x210401dc1ff714e1U, 0x624effd05012f01U, 0xc16f00cf602fefdU, 0xe8fd0afbfafe3de9U,
  0x1cf7fe171a170409U, 0x70a54afeb00cf24U, 0xdff7b1e6f8fcfc36U, 0x1b0a0bf1e8fc1ff7U,
  0xfaebf5e1d71437U, 0xf6e4fbed08eb1600U, 0xfe1f0c0c1005f610U, 0x2f368eafdfff0fbU,
  0x1916dc10162decffU, 0xe1faaaed58e87ffeU, 0x3e90b16ef7f7f7fU, 0xda96eb13a097e952U,
  0xa1a60f37d10aeafcU, 0xd47f86067f19e9a0U, 0xf60b7ffdf730e3f2U, 0x7f0a11f1fd7ff792U,
  0xa37f6ae7fb05ad7fU, 0xf0fe030ed7de84bbU, 0xa90ae5dfdbefe905U, 0x7fdbfcb0a07ff27fU,
  0x46e6870bf7907f24U, 0x41a29f2017e7e48aU, 0xcb15e7e8dc3ef038U, 0xf37fdfefc3f11cebU,
  0xca7f08ef0eea810fU, 0xf2758c815a81e247U, 0xa381ed1fedd5eee8U, 0x130e900915eb02fdU,
  0x7f5b810c9caee6f3U, 0x7137e210e1679c6U, 0xe9f6f2e5fa82fe1bU, 0xde0c1e64813ae1c1U,
  0x127f811409fe6be7U, 0xeb1be61b30f86e05U, 0xeb24f0c7d983d310U, 0xf214fa0a7dffe0f8U,
  0x831df88844d57cf8U, 0xf9fff297ff7fd1e5U, 0xd77f81a97f7fca7fU, 0x867f46bb7f817fedU,
  0x7f81817f7f0cebf8U, 0x7f7f46f67f7fc67fU, 0xead87f7f81b17f7fU, 0x7f96917f7fd981a4U,
  0xdfc4d1adb90281c5U, 0xb0518d7fd67f9e74U, 0x9f81ea81e07f7f3fU, 0x89d5477f817f81b4U,
  0xa37f7f817f5d817fU, 0x7f7c817fb963aaedU, 0xf89cf87b7f7f65a0U, 0x7f819ddc7f7fa304U,
  0x818181a3ea9f7fdfU, 0x7f8ef47f8181e481U, 0x7f81cd7fc87f814fU, 0x81f781b5547f1381U,
  0x887f087f7f7f817fU, 0x8e7f7ff47f7f8181U, 0xebf281fd8127a08aU, 0x7f7fa6817f7f7f65U,
  0x818194818192058dU, 0x7f7f7f7f81a77f7fU, 0x7f7ff6147f8e7f81U, 0x81df819b7f7f1381U,
  0x8d817f7f7f81817fU, 0x81e37fec7f818181U, 0x7f977f81fc7f817fU, 0xeb81817fa307f57fU,
  0x93270c107f030295U, 0x8601c9f6ab6436dfU, 0xe48c11eb0c11f895U, 0xe6f4d889ef0c237fU,
  0xe3ae7f8f11c27f08U, 0xdcf5daec6e1fb314U, 0xe884ff0dcb0dfd1fU, 0xa4a9151f0eee00acU,
  0x5c33bc98fa00d3fcU, 0xe103ef05fa0ec8f3U, 0xf9efb546f1d10728U, 0xe118eecf077fb4d0U,
  0xea7fd17f9c08e0abU, 0xf32c4581811c1c7fU, 0x1beacf19faec7f3cU, 0xe40cfd8ed6fad3f3U,
  0xda3cc19901fd07e6U, 0xe6eafe0d66cf5163U, 0xf67f1e7ee519db25U, 0xf1f70d087f2014eaU,
  0x8107890c7f1b7fb7U, 0x7f1a0ad21d1d0b12U, 0xd7c87e7fe9f37f7fU, 0x1ee0250f14a0a52fU,
  0xbfa0d8ba2110e01U, 0xd012ef12e51009f7U, 0xf27fef25ecc5e99bU, 0x74f9fb16ff07d706U,
  0xd9dc81170d7f30e9U, 0xd7f408fb916ffa8aU, 0xf30761001eed0103U, 0x90406f503cf120eU,
  0x2811f210fff9062dU, 0xebefffe22404f4U, 0xa0ff9f3e0faf303U, 0xfe18e5070bfafc31U,
  0xfd21eaf706d2071fU, 0xfdeff6fad410e7ebU, 0xfd0b25e11b1017e9U, 0xddecf3edf0f70af7U,
  0xfed61d2a061bef00U, 0x101c0002faf204daU, 0x2ce6f5e3e2d20dddU, 0xe2f7cf0bbe09fc0dU,
  0xeb00fdee0a0edb09U, 0x60b0e0419fb0805U, 0xd6d644e81400f703U, 0x15ef1b3103fbdcfdU,
  0x70becf9eb0800d0U, 0x49040c01ffdfed01U, 0xfdf9cc1a1aeef9eeU, 0xef010807551807ffU,
  0xeef9cfee0316fc04U, 0xf825ff300a0028b4U, 0x27fe1bf710f9f413U, 0xe9ce1ad11c070bdeU,
  0xaf2ec01d3f7ebf7U, 0x3ffeeeaf424fdf1U, 0x604e922fe18f9fcU, 0xf7a2d7ff050cec1cU,
  0xeedf0027051a01ffU, 0x7f01fcfbd644b0edU, 0x91f00a12e40003U, 0xd62ae1e2db817f12U,
  0x2c127f9e494525c0U, 0x7f2b7ffce9eefa01U, 0xb20281adfde1177fU, 0x23fc819afdba15a4U,
  0xe96f7fc8f4e87fU, 0x24d6d6029fa7f914U, 0xafbe89e5b71c75e4U, 0xe5c7eb15dff8f901U,
  0x1eb88a07a72f81ffU, 0xf9b1aa962c98072cU, 0xf69b1627e4187f92U, 0xf3fd0df903d3fdU,
  0x30f1eb26c96f0cb3U, 0xcee0de1d7f069a17U, 0x1eea21e100fcdd0fU, 0xcd7f197f0b10fd2aU,
  0xa1a029ff4ee0526U, 0xe3fee216047fdf1aU, 0xde2cdede15ec7af4U, 0x7f00dadf7c1bf867U,
  0xc16eeaf402ff4404U, 0xe190e21c991be603U, 0xce03f3def683eebaU, 0x220bf5069e057f07U,
  0x75ffd5d2ee0b0efdU, 0xb05eaf304f31d8aU, 0x803faf5e5fffa10U, 0x524f20100f003e7U,
  0x806fe0e030ffff8U, 0x342103e4f8ff031bU, 0xfcf90410fd34d8fcU, 0xb16f819e708fb0dU,
  0xeff2092c00fd0317U, 0xff5f8e90305ce0cU, 0xafcf61235e8ef07U, 0xee011cf2f5f3f3f5U,
  0xfde102e2f5230911U, 0xa05ebf7ff17fa0aU, 0x50aed06d204e1U, 0xe5fce3ffd505be03U,
  0xe802ee0016f10d0eU, 0xf5ff07f00affe3feU, 0xcf41bd342e600f8U, 0xfde203e90328fb09U,
  0x27020b282203170bU, 0x18034efd09010225U, 0xf8f9d4f1fd0fU, 0xf9101218090a15fcU,
  0xfba2eafbda48121cU, 0xf613f9fe04420903U, 0x8f820fee2f6eefaU, 0xf0fef0d718d3ee06U,
  0xff2d0af42300cdf6U, 0xbfd050705f0f520U, 0xf31bfbfdeb16021cU, 0xf9300fe01f7U,
  0xffffff4efffffc0eU, 0xfffff340ffffea10U, 0xfffff5e100000004U, 0x5b00001b37U,
  0xa200000800U, 0x2e7efffff390U, 0x115eU, 0x7400000075U,
  0xfffffe39000000d1U, 0xafbfffffaf2U, 0xffffff7400001ac1U, 0xfffffd34fffff6c8U,
  0xfffffa2800000194U, 0xb1fffff1f4U, 0x151c00003a46U, 0xa18ffffff92U,
  0x30fffff29cU, 0xffffec3bffffffe9U, 0xfffffe01000012d1U, 0xfffffffb00005e26U,
  0xfffffd6400000732U, 0xfffff5c6fffffc0cU, 0x52000000b7U, 0xffffff9c00001102U,
  0xffffff8dffffffa2U, 0x13ffffffe7U, 0xfffff968000015bcU, 0xfffff0dc00003807U,
  0x19efffffccbU, 0xfffff47300000021U, 0xffffecdf00000c02U, 0x310400000179U,
  0xfffff603fffff517U, 0x7d3ffffffb2U, 0x2a9e00000005U, 0x1a2fffffd55U,
  0xfffffffa00002a80U, 0xbeb00000842U, 0xbe000003e7U, 0xbeeffffff31U,
  0xffffff3500000d67U, 0xffffff2900001775U, 0xbd1ffffee84U, 0xffffff78ffffffbaU,
  0x3f6a000000f2U, 0xffffe11efffffcd5U, 0xfffff6ae00002608U, 0x8fffff5beU,
  0x91000025b0U, 0x4946fffff9b0U, 0xfffffedefffff347U, 0xffffffe7ffffff55U,
  0xfffff769fffff9fbU, 0x31faffffeda1U, 0xfae00002be1U, 0xffffff180000012cU,
  0x35ffffffc9U, 0xfffffe7c000000f3U, 0x2bd200000436U, 0x2c400000d7fU,
  0x1c5b0000004eU, 0x2388fffffe8eU, 0xffffffe6ffffffbdU, 0x288ffffec64U,
  0xfffffa76000015c1U, 0xfffffa8b000000b8U, 0x22c6ffffffc9U, 0x78bffffe996U,
  0xfffff80800002912U, 0xfffffd5d00000ee1U, 0xfffffe69fffffe58U, 0x36000000f9cU,
  0x7f0ffffffb7U, 0xfffffd50fffff01bU, 0xfffff308ffffff6aU, 0x21a00000142U,
  0xffffe94400001bd1U, 0xffffffefffffdd9fU, 0xfffff048fffff04cU, 0xfffffffdfffffee7U,
  0x7ab00000222U, 0x2efffffffbU, 0xf400000144U, 0xfffff550fffffeadU,
  0xfffff2eaffffe9e6U, 0x5fffff50fU, 0xfffff039ffffffa1U, 0xffffffb7ffffe8e9U,
  0xffffffe4ffffffe0U, 0x730000244fU, 0x39000002bdU, 0x145e00002faeU,
  0x1e2dffffdff0U, 0xffffec96ffffff04U, 0x668ffffece0U, 0xffffffdafffffb1dU,
  0xfffff95e0000131dU, 0x1c7700000408U, 0xfffff85800000042U, 0x5bbffffec76U,
  0xf8ffffffc0U, 0x22bfffff750U, 0x12c00000003U, 0x5d99000011c3U,
  0x224900003347U, 0x115200000d44U, 0x15170000068bU, 0x1b3a0000017fU,
  0xfffffd8a0000159bU, 0x11fffff709U, 0x1fcfffffc5eU, 0xffffca45fffffec7U,
  0xffffec14ffffff87U, 0xffffffa1ffffff26U, 0x1cabffffeae9U, 0x3e00000111U,
  0xd50000000cU, 0xfffff606fffffd4eU, 0xb81000011b0U, 0xf30a0538e5080010U,
  0xed0efaecf5044f02U, 0xf8ec2381b9230003U, 0xf3e80312fc00ff25U, 0x1c15dc14de0fe8d2U,
  0xe7270ff6e82e4303U, 0xef0c0a0e103e1d18U, 0x1b9efa342120f50dU, 0x6d60806141e27f7U,
  0xfa15edf6fb49eaf1U, 0x29fa13f9c517071fU, 0xe90add02fa1ffc07U, 0x1ff2fd041cf3041aU,
  0xebebfaf9fcdf1d03U, 0x41c12f7feef07fbU, 0x1fe7195002061516U, 0x1ff3b4e1ae9dbfbU,
  0x5191affeaf10ae2U, 0x10200a2cfef80c3eU, 0x272e7008082302f9U, 0x1311070c0aeff21dU,
  0x7010718cfddf518U, 0xbd110411090d12e2U, 0x1d1a2f04e2f0fef7U, 0xf0200ccc12cc331fU,
  0xcf1110e609eaeb0bU, 0x17fe16fb0a1c0be8U, 0xfe1d462b400b1439U, 0xf8071cd600f53507U,
  0xe447edf4f4020713U, 0x180c35070fc8f322U, 0x4dff0359defefcf1U, 0xb305e616bf0d221aU,
  0x12ef08f602e8bb1dU, 0x3112efe7090cf0eeU, 0x29b9fffb0912f414U, 0xffc853da08d70601U,
  0x1eeaefe32e1d02faU, 0xfef31f323a170219U, 0x723417a4f40cc7f3U, 0x627fdfb2505f814U,
  0xddf000f6e5fc220fU, 0xc050df6f5d708c4U, 0xac1ff16d6b6ea01U, 0xf106a7143f022552U,
  0xb061910dd09343bU, 0xfb9d2cf4b6fc32fbU, 0xe80c1206f30621ecU, 0x50a4e260e092034U,
  0x2302eff616df14a8U, 0xf928f0020a080bf4U, 0xeeaf2fb23c81304U, 0x881161a04e00a07U,
  0x9eaebea261c3c01U, 0xbce7ba0010021b32U, 0x1cfa1e091fd4130bU, 0x35110c21d00ea6e8U,
  0x2503011307530314U, 0xf703f7231c2afd00U, 0xf8c705041a0a0e23U, 0xf01c0ecd11032433U,
  0x2b561ffee90ef307U, 0x4e1dffe03cdbd0cU, 0x2e0024f6ec0fdb27U, 0x71116e4ce07e820U,
  0x1b05fe190ceedff7U, 0xaedddf9010af5f2U, 0xf51cf9080a0d30f6U, 0x9f9f3e011f31de5U,
  0xfbedfe2bfa7b170dU, 0xe91afb0c39d8300dU, 0xfe29f202e4020ef1U, 0x13f92ee1fe40e6ecU,
  0x9ecf4d802faf0e8U, 0x2d22dc081aff1c06U, 0xef09090e0005ec18U, 0xb544def00f02ede4U,
  0xe1f2fe15f40cf9feU, 0xf5f2100527d60912U, 0x170d092b2ffacc41U, 0xe8090af1e91efbf5U,
  0x1e25cfd2f927dbbaU, 0xddaf170f12f6fb01U, 0xf003f5f415f41506U, 0x1bf4eaecd716f9f3U,
  0xe9e7f00a0908eef7U, 0x14ef06edf927b9d6U, 0xfb1ed9f2020cdff6U, 0x3a1209e37f23370eU,
  0x3103ac60b0efa29U, 0xd2373614f1d21218U, 0xf43971bfedd534ddU, 0x510e902614c10U,
  0x1b2409f5cdff013fU, 0xb2180d0a9fbc2cf9U, 0xa3e61e322315caefU, 0xf917c82f0eedf8caU,
  0xa0dd839fa231027U, 0xfd4333b223d4ddfdU, 0xc714dec5110818ecU, 0x440101084455f11aU,
  0xd61608f5e5182a25U, 0xee9b83bbcfc2113U, 0x2ec415dbe932e2c2U, 0xda33e20d3ceecdf0U,
  0x237e222c7f081f7U, 0x1be5ec590a1f36b3U, 0xf4f0e02ae50b33e4U, 0x655cfdf9c7f4fce0U,
  0xf420e7d74905c819U, 0x1112d210d0f1d4c7U, 0xde26bb573ab1fc5eU, 0x33c2e656ec29defeU,
  0x11eb17f9470a1e17U, 0x6ca012701b94904U, 0x3437bbb713d7f4f6U, 0xd5e01fea21e7fdebU,
  0xd9fe49edaff7def7U, 0x2b74e602cf55fa24U, 0x1229f8d50d28c4c5U, 0xcb15ae05fbea1435U,
  0x12e3fc09fcf90d27U, 0xe41704020218fa33U, 0x240af51cb80907deU, 0x2d14cb0719260706U,
  0xf4e203f9edffe6e6U, 0xfedc07cbf40f0beeU, 0xfc1dfffbe1cd071fU, 0x4c08fd01f7461821U,
  0x3a1bfecdfcfaf7ecU, 0x5810dee27090dd3U, 0x25f1f211fdccfb1eU, 0x28d4e7fad90fe8dbU,
  0xf0bcfd1000df219U, 0xcdebff03bbe607c9U, 0xeeedd90512f0e913U, 0xfd09e11dfc23e1deU,
  0xcdfc0effc9e3fff6U, 0xfce905e0331714a8U, 0x1dfaf3e41036fc0bU, 0x1c4e14f8e3cef81cU,
  0x2b20f517f21cfc20U, 0x1000e92a070ce8d9U, 0x192a371bcb1afed6U, 0x40f5e5202421f821U,
  0x19fff74450eb1becU, 0xcf801ff3fe2f5eeU, 0x28fab7e7d4e056e0U, 0x506edf603030f17U,
  0x35fa2af822212806U, 0x42016feed067f02U, 0x165cdbea11eee0d7U, 0xd3ac1b2ede08ea87U,
  0x920c091623111cfdU, 0x1c0eefc0d1e9eb27U, 0x130f6f3a443d7f5U, 0x52cbedfa33bbdd1eU,
  0x15af5b5afed8190aU, 0x5ddad2edf0ec45e9U, 0x43f5da00f43ec7f8U, 0x2bebf72fe3232ee7U,
  0xf5f23511eaf948d3U, 0xc8343330fedbd31cU, 0x3c7bc2d0eecb603U, 0x13815af1633662eU,
  0xd4f5892811bbcce3U, 0x617f8bc0d201410U, 0xf22605dae547ddd6U, 0xd2e6a411222ff8eeU,
  0xcef20e1a3eb98abeU, 0x9495af940d9f715U, 0x372306df220bc7eeU, 0x1222fe12e1180b2dU,
  0xf30d32f12817bbU, 0x1f3c25a4e50e67d4U, 0x15d53e4728dcc0f0U, 0x33260cd2142b5300U,
  0xefd1091ee421fc28U, 0x22f1bdd511ff0bdfU, 0x21827f60624474aU, 0x2619effef9f6ecfcU,
  0xe9eed80202f6d6e2U, 0xa60ff8edff1d1afbU, 0xae2f2fc0500e781U, 0xecf2fefdf3eb38feU,
  0x29f6201113fa05ffU, 0xefe4faf915072000U, 0xed0ee7ecf506ebefU, 0xfb5920ffe6f5f207U,
  0xfef64b1431ea0bfbU, 0xe216092ffefffffeU, 0x1dbc605f5f3eaf1U, 0x14c31bdb041400faU,
  0x8f706ed2102ab11U, 0xf7d90c4a020df220U, 0xfb02fe0712fe06d5U, 0x18e50821f5d51f06U,
  0x903180afa02f9f7U, 0xde0f07fa08e1ed1eU, 0xfe050408f2e0d5cbU, 0xee06d20a01effe09U,
  0x4e1fa0110f5e3f8U, 0xde07ec2ce4f501ddU, 0xff18dd060df40e0eU, 0xf9d62bf2fdd020e4U,
  0xfc6ceaf51423dcf8U, 0x90410fbc8f4fcf9U, 0xed0fed0ccafc06f4U, 0xe60cf4f2ea2ddae5U,
  0x2507ff1bff065b1cU, 0x60d0b0db3f51fd5U, 0xe309c653083337cbU, 0x14151215cbdcfbf6U,
  0xddca08bbc403bebeU, 0xcbd801eecc0808e4U, 0xacf5540a142501ecU, 0xd2e60417ed1960b3U,
  0xf4dee60ba5be19feU, 0x3ce0feed40e0cf2U, 0xa859e700271efd24U, 0xda0b1213ecca01afU,
  0xe41d9a04deece007U, 0x10131a0c08fce424U, 0x281117ea3e19210dU, 0xe3f10ff40e0aff28U,
  0x2efe03fcf300e717U, 0x18ddf9e4fd09fe03U, 0xfbdaf3eaf5d9f328U, 0x2d35e5ff291def8aU,
  0xf3d5eb041cd8fdd9U, 0xc04fd3efefcdd0cU, 0xd6b70bdab81e81e5U, 0xfcede8f1fd26bed9U,
  0xf8f0cfc30c12e40aU, 0x9f7b3eaddf6e119U, 0x3ad7dc082906b765U, 0xbdefcd6fe2f00b4U,
  0xf15ed74c02e138f5U, 0xfc09a6d80e3b0cf8U, 0x162df3ece12808d5U, 0xe72020e83ee8d50aU,
  0xc808fa32fcea00f8U, 0x443f0dfd2dc2ef0eU, 0xe3efe5811ce38d09U, 0x410240acceaf5f3U,
  0x341de006012c00e0U, 0x2e505edd3f5170dU, 0x1af02f3f7f05cd8U, 0x2ce2f81318f4e839U,
  0xe1090257c5f802U, 0x2243ff000fd5e3cfU, 0xbf12b3b320a22f5U, 0xecda22f8e61d1ee7U,
  0x1b26a4240133064bU, 0x31efea17fe08f4c7U, 0xe05f4d9da2000ebU, 0x1062107042b4906U,
  0xcfbe7b0040c21ceU, 0xd2f21accbff51118U, 0xfef3fbf4fafbd745U, 0x1df00f8c22a3f11U,
  0x4211f64c1b18e8eeU, 0xf095212730fe1014U, 0x19df0c3a13d60fefU, 0xd6e7ef39c2e1f005U,
  0x64a0be2ec39ef5bU, 0xfcf5d023430e2b25U, 0xf0f0f112070fec14U, 0x5919e202f002f7ddU,
  0xf2300521f563a9e1U, 0xe6d6d722c201fd1aU, 0x141c03d707dc07f5U, 0xbf0be1e20d25fd16U,
  0xe21ef71be5f7ff44U, 0xf9f6f6cffa1d1f06U, 0xedd1e2c05200fe5U, 0x3ae2120431fe1209U,
  0xe300f9edf5e40a06U, 0xff12f2d93300e521U, 0x41406d514d9efffU, 0xe5360fbf1f15f3f4U,
  0x6ce01f7c9cfe81fU, 0x238d7da43dcfffaU, 0xef1cc10d1f8fe9bU, 0x9e5d2b91520f00dU,
  0x2e3c32203f14b126U, 0x343cdc0642fe07d3U, 0x15f1f3e0cd0b0bfaU, 0x1bed81d905eceb24U,
  0xfe03fcd7d6fb062aU, 0xd51b0d2adf2213f1U, 0x1313f41117d90ef1U, 0xd504c240ac19fb28U,
  0x36d9dbe331e0faf5U, 0xbf09f31126d217e1U, 0x62f519d94b041d10U, 0xe7f416040925ded4U,
  0xdf6f8b1fcd1fcfeU, 0xf8e7f02afc21e6d9U, 0x203e611f11ffdf6U, 0x1e6fbffe122fce5U,
  0xe901ea020030e6f9U, 0xd09d40505fa09e5U, 0xf3fbfee6fe0bf5faU, 0x2f802f00d21fee8U,
  0x1133fe9e720e6feU, 0x602e9e9fd42f3e7U, 0xda24f2fafaf710e1U, 0xf6060bf60f0600e6U,
  0xf0fce0ccfef2490bU, 0xf7f720f7f51d08edU, 0x13eafefef90d0913U, 0xddf01909060cf1b6U,
  0xde00f90ee10af92cU, 0x7fb0c15f60af9f1U, 0x1b0217f5e8f4042dU, 0xfcebebfd07f5ff02U,
  0xe3ede2ee00111d27U, 0xf00d1d00f1f2eb00U, 0x119f8ffecfaf1ffU, 0x1ec0d05edf0811dU,
  0xfe0306f8f70bf7f7U, 0xffe205f00b0f17ebU, 0x60d07fef3f727U, 0x32fe17f5f2e80ef5U,
  0xf029dc0ef213ec1fU, 0x210f80615f62307U, 0xfdf4f816e1010406U, 0xff934240a0beeefU,
  0xaedddffeefc0708U, 0xcaddd31301f303ffU, 0xf8ebf4fc07d83004U, 0xe2f8090809fddbeeU,
  0xde04e7f2dd34e7e3U, 0xcff2da15f2f5e517U, 0xfff7faeef601fde8U, 0x3ebf1fcfe0500e2U,
  0x20d09e700c8f2d7U, 0xf0ff10fce3fcfaf7U, 0x1e8d8e4f7eae52cU, 0x305ed02040a02f0U,
  0xe8fac7c6eb02ff1aU, 0xea10f00c0a07faeeU, 0xfae710fe0b0eefccU, 0x1e8fde417d67ff9U,
  0xf601f7fd07ece8bdU, 0xbf600fdf005f4f9U, 0xc1040e0814b90504U, 0xf0eb09f5c2fbce13U,
  0xdee0e2e6cb10c801U, 0xebd701fbf7e2f100U, 0xf6eff9f10c0710f5U, 0x1509f40efaecf7ffU,
  0xf2c70403f2cb140bU, 0xff00eb09d8fceb03U, 0xf9f9fb01f70cf811U, 0x7f6ddfcbc02cdffU,
  0xd3cc08040db818c9U, 0xeef063004f1efebU, 0xe71bd0f9f1891a10U, 0xe14fee5150b2a2aU,
  0xc4fae8250d02f930U, 0x3bf5eddd0ff4e50cU, 0xf4095a10ef0341f0U, 0xc0205ff0deb3be7U,
  0xfb5d0218e7fff2ebU, 0xfe36b81f0bacedddU, 0xd54905240adc0e04U, 0xcef90ef720fd2b08U,
  0x6c5ec0d12d1da17U, 0xe80317e6d7ef01e9U, 0xf8de0efaff0e13e2U, 0xfe082f0dfd1702f7U,
  0xda0c000625e810feU, 0x3117e1160d2725d9U, 0xfcf21f1bd6c70302U, 0xda0303140e141c2bU,
  0x1504cffb1602110aU, 0x14fff00309f60128U, 0x10dfd0060b300611U, 0x281f0c17c9dcfe09U,
  0x2108e9f4defaf825U, 0x14b4c3101517e3faU, 0x62a0cf4e0290be8U, 0x5c6b9bb4e130315U,
  0x8106080712ed2616U, 0xfce733fbe91340c6U, 0x140ff4231904ec20U, 0xeaef00f7ffd8dfe3U,
  0x605ff21180a0208U, 0x48f9b7181905f2f8U, 0xbef0f90b01eff4caU, 0xf1fa12060b0fe4f3U,
  0x8f30eead5180c81U, 0x17f5d510db06dd12U, 0x4bffafffbf40601U, 0xbf020cf60c0b01U,
  0x1e240612f70ef912U, 0xf60e0ff40afcc203U, 0x7081314ce12e0f2U, 0x14f609f40f13091bU,
  0xedf5fdfee32b05faU, 0xe9d6171ce405f407U, 0x310d0fb302e5fe0dU, 0x4d21b08fee9e712U,
  0xf0fd0e02f2fa0703U, 0x1317fdf706dfc4fcU, 0x12ffc91402f4f520U, 0x1a0c08f708ec0dd0U,
  0x70eff1316d817eeU, 0xf003041403110709U, 0x11f5fc0111010906U, 0xebfb14f9fbf90903U,
  0xf0fbfdc9020bf50aU, 0x25f2fcfcf9edc308U, 0xd5fd00e105fef7f4U, 0xfb1e0be32612dd08U,
  0x608a415fff5050fU, 0xc92f1d19f5db0712U, 0x14cfec293ac91150U, 0xdb66f6dad5b6c22fU,
  0xe2e657e0e717c713U, 0x2b2718f71155101cU, 0x4e9bc22e7bdcd22U, 0x44e0ed1fd8eb22ebU,
  0xf7e7d536f3d45317U, 0x7f1c61d063be10fU, 0xe1eea3320ecd1ef5U, 0xfc8a4d5c838dac7U,
  0x1d1bf261e903d8ffU, 0x6b1d30823e7a429U, 0xfb2e5549e307c41fU, 0xdce715c71df40a25U,
  0x12cf11e2c6d9ed0cU, 0xff1e049a1a0596c0U, 0xeb070cdaefd72e0eU, 0xf1afc9ed31fcecccU,
  0xb81307cefef317fdU, 0xd007c9e51400c7f7U, 0x13dd137c2b250e10U, 0x310bd0d5f2deeacbU,
  0x67efeef87fa8da0bU, 0x48fdf3fecfe7f1e4U, 0xd4bb14cefc05eb0aU, 0xf3d7eb3902f055f6U,
  0x1a072ee67d2b0e2dU, 0x13ecb0b6dfde171dU, 0xd63238afaeeb240aU, 0x474df403130d2736U,
  0xe023627f425ff0eU, 0x4f9f101f1f5240fU, 0x5de0eb5f4f904faU, 0xf3e9e212f5df8c4fU,
  0x11042a0aeb6015d7U, 0x71618f5154be93bU, 0x2b0c23efd50006ceU, 0xe811f217e9cd1c2cU,
  0xe9e3f1e608c44323U, 0x8f0e2d0a35fcfe3fU, 0x18d4c602bff107efU, 0xfbfa212420060fc4U,
  0x6f217b0aa411622U, 0xfe67db020008091aU, 0xed0ebb27e5f8f70bU, 0xe61f6225e6c31604U,
  0x2708071bf1ed020fU, 0x3cedfcb02ee97fe7U, 0x151e0ff9da0211e9U, 0x17fa0f5ffb0117e5U,
  0xd11726929ec01f04U, 0xee90ea2150002d2U, 0xf9d3f31bebe819d7U, 0x8deaa9162706231fU,
  0x19364151e83c01e0U, 0xf600f021081d98eeU, 0x23bf141b39172c01U, 0xff08ed11df220b32U,
  0xca29e73d033c07U, 0x51fced13b702fb4dU, 0xec29f7f7d5401101U, 0xba1f1115fa0cf208U,
  0x5341915e114da1eU, 0x2db7ff3ecff00f4U, 0x7f9d1d3f2cefaf3U, 0x22fadfe0f6000809U,
  0x6fe1a0b14fbfef6U, 0xf512faf5dff5f402U, 0x90703a405e3f20aU, 0xe7211ff1fcf4b802U,
  0x13eee713093dd90dU, 0xf2ca0a0009fbfd07U, 0xf504e815fcff0ef2U, 0xcf8f20506c6f514U,
  0xe7baefd0e3230712U, 0xc0b11fdfa381715U, 0x140a0603f70af5f8U, 0xb1ae8fa01050e14U,
  0xbd5312e6d8f2e60cU, 0x16e2c0e9fae10813U, 0xf113eb16f9f30bfeU, 0x561ae8f9f4f4c5U,
  0xf2f408e10606ed25U, 0xfafdebf608ef1609U, 0x308faf7f80b1004U, 0x15f4d8cd3b16fdf1U,
  0xe901f9f4dcfee7fdU, 0xfdd84204de1fbdf2U, 0x22d0e515e50506f0U, 0xfbe30a002512f306U,
  0xf9fefc01ffcdf1f6U, 0xfe21fefa0d11f603U, 0xf203fa01f10a09faU, 0x70903f00b0226fdU,
  0xee1e1ef1b90415f7U, 0x11f3e50c050609fdU, 0xf8f267f6f7f3f304U, 0xa1bed0281ff29fdU,
  0xf310fb09090d09ebU, 0xfed5f10404020b19U, 0x130746f71202d6f4U, 0xffffee0aeef2010cU,
  0xfef4030af40301f7U, 0xc080e0604f808ffU, 0x30613fe0aed0efbU, 0x9f3fdeef00c05fbU,
  0x3fa020003a90e00U, 0xf607fa070bfa03fdU, 0xf912fd01060c02f7U, 0x43fa0401070dc70cU,
  0x150906e2f8fef6fcU, 0xeef8f76efa04ed0bU, 0x207f7fa0308fd0cU, 0xecf5f2f6dffafa07U,
  0x110dfe0206ff05fbU, 0xf808080203f70206U, 0xfe120bf3fd020809U, 0x6f70304041402fdU,
  0xfbddfb033e0efef5U, 0x61af8f30c0eb7e4U, 0x1113ea021517cbe1U, 0xd061bf61fabfdfcU,
  0x2f2fd1c0c33daf0U, 0x1e24e0c2c5dbf2fcU, 0x182fe5f523c5bcd2U, 0x15e9f7090613f6U,
  0xc61cf02a13322c20U, 0x20f6fb1ffccd513cU, 0xc2dd526cde3edf3U, 0x20ff634041b2cf3U,
  0xdfe8081c3311e2c9U, 0xbe040ec2c21eafeU, 0x1f2c4d06bf1deddeU, 0x26de0cd0f646ff2fU,
  0xe6fc24f41fadff0aU, 0xe9fa26f80a29f704U, 0xef08171cf501c0c2U, 0xf46f90a0cc71806U,
  0x51ecc0c0f01fd15U, 0xe92816012d060ddbU, 0x3326fb0dce17f5d8U, 0xc865f0de7f40f8dcU,
  0xfcf9c52a03cb05e4U, 0x11eff30064b0e0bU, 0xf8ea221501ba00efU, 0xb8ff17f4f7f921eaU,
  0x80012d943f4f50fU, 0x19ec2635e90323f4U, 0xcdcaa5e6d33e0d28U, 0x3f8eedae51d06daU,
  0xe6f7e9f92939f3e9U, 0xbb3ee7dd1bea34f5U, 0xc6afd0ef6841eff1U, 0x271efdbdd70f0ac8U,
  0xf80ae9cfd6deebd9U, 0x318fddc140705feU, 0x14e602bb10baf6faU, 0x77f99e4050706d2U,
  0xe61e1122e5eed01bU, 0xcddef81012041b03U, 0xc9f8e63cf8ad4d10U, 0xd70816e0cff5c2efU,
  0x1b02f3f91a161714U, 0xfee910c8102fe908U, 0xeb19310f1cf9a231U, 0x2f202eddec4cec2fU,
  0xd0c266806f828feU, 0xe7e7b9e001f8faedU, 0xf9e0d4eefeea1498U, 0x1f14fc280e0c08caU,
  0xfdf08f4172af915U, 0xf50708dde80ae1f1U, 0x740dbc718e71330U, 0x2eee0798f9052f03U,
  0xeb05a155fe200b2cU, 0xc84200ef0929a906U, 0x6d508d71f13e0f8U, 0xfce8fb03f6fd06feU,
  0xb435fa1db01b0a38U, 0xfbeded13e5fbf503U, 0x7110204f4e6daf2U, 0xcf6fcf4b8ff0ff8U,
  0xfefbd2f90ea5c3feU, 0x1000170433000e17U, 0xfbfbfa04eff6f2f8U, 0xfe0c14fff204dff9U,
  0x30cfee60105ed06U, 0x290c03f410f8fdf9U, 0xd7f9081df601fa00U, 0x1af0fd07fb0d1206U,
  0x7f0700f524040cfcU, 0x310fb060401faf1U, 0xaf6d002f806011fU, 0xfc1218060fea17faU,
  0x3dafdfa48f0060bU, 0x12e1a05e4fc04f6U, 0x5fcf8090a08fffeU, 0x8f8f1e00df80201U,
  0xf8fbfeff003b0603U, 0x10100405fa050706U, 0xf301e9fdebd00cfdU, 0xf6f9084df21c08f6U,
  0x17110afe04010a07U, 0xc0409fb0104fb03U, 0x10fe0bf4fafa0003U, 0xf700a30d03104139U,
  0xfd54fa0e04010302U, 0x4040ef8dddf0a06U, 0xfa9fc8e312ff0f0fU, 0x1a1fe218252206fcU,
  0x38e8d412080ed100U, 0xfa2f0c19f328e80eU, 0x18b70b22122fc0dfU, 0x1f2b4021070602e1U,
  0x13e8f4e604faee3eU, 0xd1f30f0cf7fb03f1U, 0xfef4f1efc1c5e62cU, 0x81e81861e0f7e511U,
  0xc7eae7fa0efae326U, 0x5904fed0f8daf24fU, 0xf2e6cbeb0bde25b6U, 0xee2f2724f5faf1e7U,
  0xd5f62353d1b61105U, 0x4b184bc6f894ddefU, 0xe10fb20525fe0d0cU, 0x31201f1f15dbeb47U,
  0x15fff9f7f523e3f6U, 0xf7bde2ef2000f2ffU, 0xec200ea19196c15U, 0x11f400ec1e27f7f2U,
  0xdf4fd212f1b623bU, 0x34326137cfed0e9U, 0xd5da0ef51ef9f320U, 0xe10de13c3c625f0U,
  0x104f1deef22af019U, 0x2fedf82f912fca1U, 0x710f41b17c2fc11U, 0x237f704dcebee20U,
